#version: 0.2
h e</w>
i n
▁t he</w>
e r
t i
e d</w>
e n
a n
o n
o r
o n</w>
▁o f</w>
a ▁
a r
in g</w>
n d</w>
r o
e r</w>
r e
▁t o</w>
t ▁
▁t h
e s</w>
o u
e ▁
i t
i ▁
▁a nd</w>
e c
o s
e s
e a
o ▁
i c
a l</w>
a l
a ti
a t
▁i n</w>
i s
o r</w>
i l
o m
- @</w>
e l
@ -@</w>
▁i s</w>
t h
a t</w>
en t</w>
a n</w>
u r
t s</w>
a s</w>
c e</w>
p os
e n</w>
v e</w>
o l
q u
e m
u s
a s
▁T he</w>
t r
▁i n
o t
a c
ati on</w>
l y</w>
▁w h
l e</w>
t he</w>
i s</w>
i d
▁th at</w>
r e</w>
u c
t▁ he</w>
& a▁
▁f or</w>
u l
i g
pos ;
er e</w>
i n</w>
▁p ro
n g</w>
a m
▁s h
v er
c h
a y</w>
ot ;</w>
▁b e</w>
e t
▁ e</w>
a g
a p
i r
ti on</w>
o p
f f
t h</w>
▁o n</w>
&a▁ pos;
er s</w>
▁c on
u ▁
it h</w>
▁i t</w>
▁a s</w>
u n
al l</w>
an d</w>
▁r e
o o
▁e x
p l
t er</w>
i m
▁b y</w>
t ed</w>
o w
▁s t
on g
o u</w>
qu ot;</w>
▁w as</w>
▁c om
s ▁
o t</w>
m ent</w>
o c
▁w ith</w>
r ▁
u t</w>
▁a re</w>
s t
il l</w>
▁h a
u d
t o</w>
y e
p or
r i
a b
e t</w>
re s
a▁ nd</w>
▁T h
on g</w>
a d
h ▁
e v
o f</w>
p er
s i
it y</w>
▁a l
on s</w>
s e</w>
ou n
at e</w>
i c</w>
▁w ill</w>
▁c h
▁y ou</w>
p ▁
t er
c i
u b
d uc
a k
l d</w>
▁sh all</w>
i ti
w ▁
ro m</w>
c ▁
▁K or
f or
u m
o w</w>
s t</w>
a y
▁th e
l ▁
▁ha ve</w>
▁a t</w>
e d
i t</w>
p ro
o ver
f ▁
&a▁pos; s</w>
an g
e e</w>
e▁ n
i▁ ng</w>
in ▁
i v
▁b e
e x
▁ s</w>
▁r es
t ur
d s</w>
▁f rom</w>
en ts</w>
ic e</w>
ye ong
▁u n
▁p l
▁I t</w>
e ar
i z
i d</w>
▁I n</w>
▁a c
g i</w>
over n
c h</w>
i es</w>
& quot;</w>
d ▁
ar y</w>
an t</w>
▁p ar
ea r</w>
▁p er
▁e n
▁h as</w>
e p
▁a n</w>
i on</w>
ig h
▁n ot</w>
t y</w>
p ec
e a</w>
c on
an ce</w>
ti ▁
en t
ic h</w>
an ▁
at ed</w>
▁th is</w>
a in
a r</w>
s u
th er</w>
▁h ea
d er</w>
m ▁
▁t r
i r</w>
c l
▁C h
l l</w>
b ▁
▁w or
▁o n
s o</w>
▁c an</w>
ro u
c om
d ing</w>
es s</w>
on al</w>
u t
ou t</w>
▁ ed</w>
th ▁
v in
▁o r</w>
es t</w>
g e</w>
ea n</w>
▁, ,</w>
t ing</w>
▁a n
i m</w>
or e</w>
yeong gi</w>
ff ic
▁d is
ol l
▁ t</w>
ag e</w>
▁com p
▁a b
o v
ou ld</w>
▁wh ich</w>
▁wh o</w>
e g
▁( (</w>
u e</w>
e▁ r
▁m an
uc h</w>
& ▁
ti c
a t▁
▁l i
▁a d
e op
▁r ec
▁a p
▁s u
t en
▁b ut</w>
g h</w>
▁G yeonggi</w>
n ▁
i al</w>
em ent</w>
im e</w>
o g
▁i m
e▁n t</w>
s h
ar e</w>
f ter</w>
▁n e
es s
in g
a us
▁W h
il l
e l</w>
▁th ere</w>
▁w ere</w>
em b
a in</w>
k e</w>
▁d i
w i▁
▁d o</w>
▁hea d</w>
▁ u
i b
▁& quot;</w>
ou s</w>
ou r
a m</w>
ak e</w>
▁s a
eop le</w>
oo d</w>
▁b ec
ou r</w>
am e</w>
▁Kor ean</w>
ati ▁
por t</w>
▁o r
o▁ n</w>
re ▁
en ce</w>
▁c l
a▁ n
▁t ime</w>
a▁ r
w h
o d
ti v
▁e v
▁h e</w>
▁Kor ea</w>
▁m ay</w>
o▁ n
o▁ r
e y</w>
▁al so</w>
er v
ub l
s on</w>
k s</w>
▁a g
▁s o</w>
el y</w>
om e</w>
re c
ap ▁
th ▁e</w>
e m</w>
g ▁
in e</w>
tur e</w>
al ly</w>
0 0</w>
▁y ear</w>
on ▁
i t▁
k ing</w>
for m
▁r el
en ▁
ec t</w>
ir st</w>
▁f or
▁p eople</w>
an s</w>
al l
▁be en</w>
igh t</w>
as t</w>
i f
iti es</w>
; s</w>
aus e</w>
▁G u</w>
m e</w>
▁a t
a d</w>
an g</w>
i▁ n
▁p re
cl ud
a pos
id e</w>
▁con s
s ed</w>
t e</w>
a pos;
d i
▁r ea
▁m ore</w>
e▁ d</w>
vin ce</w>
▁P ro
f▁ or</w>
an d
p ar
on e</w>
e f
a ir
▁I n
ar d</w>
▁s uch</w>
tr y</w>
▁wh en</w>
o t▁
▁i f</w>
ati ons</w>
u n</w>
it t
in is
▁con t
▁Th is</w>
▁the ir</w>
▁ab out</w>
ab le</w>
▁m e
os t</w>
a v
t u
f or</w>
c re
u l</w>
▁th an</w>
▁m y</w>
▁the y</w>
or s</w>
ap▁ os
es e</w>
▁s ub
ubl ic</w>
a ce</w>
p en
▁com m
▁f ac
ati▁ on</w>
▁ac c
us t</w>
▁a fter</w>
- ▁
ur e</w>
-▁ @</w>
▁w e</w>
▁& qu
ou ▁
el l</w>
o▁ t
e w</w>
om m
o b
u s</w>
en c
▁f irst</w>
▁su p
e e
l is
an c
overn ment</w>
as e</w>
ig n
an y</w>
o m</w>
ay s</w>
it h
o o</w>
t ers</w>
▁h is</w>
t▁ o</w>
re e</w>
ad e</w>
▁a r
in▁ g</w>
b e</w>
s s
u m</w>
ar k
▁p r
▁on e</w>
@ -▁@</w>
o▁t ;</w>
w o</w>
al s</w>
e en</w>
u ng</w>
▁s p
i l</w>
ci al</w>
▁in s
ev el
n ing</w>
▁h el
i ve</w>
o in
ati onal</w>
c t</w>
o▁ s
▁u p</w>
▁s ec
d ed</w>
▁Th ere</w>
▁K im</w>
ot▁ ;</w>
h ed</w>
a f
& qu
il e</w>
ar ▁
▁sa id</w>
▁re g
y ▁
▁o ut</w>
P ro
& ap▁os
▁c oun
▁in ter
p res
▁bec ause</w>
t▁ er</w>
o on</w>
q ▁u
▁2 0
▁S e
▁o ffic
or ▁
▁l oc
▁in clud
p ol
▁al l</w>
i ous</w>
si on</w>
v es
o p</w>
d er
▁I f</w>
▁m e</w>
m e▁nt</w>
o d</w>
ti ons</w>
▁o per
▁p res
▁pro duc
▁ es</w>
t or</w>
b y</w>
e▁ s</w>
▁m on
f er
g h
re s</w>
▁un der</w>
▁in d
it e</w>
us in
th▁ at</w>
e on</w>
ci p
@ ▁
oll ow
▁o ther</w>
e▁ r</w>
▁m emb
apos ;</w>
▁s ch
ati ve</w>
@▁ -@</w>
a e</w>
▁wh ere</w>
▁e m
oo l</w>
pos ▁
oo k</w>
i p
g r
t ment</w>
or y</w>
▁l ea
▁A r
▁A s</w>
tr uc
s es</w>
rou gh</w>
an▁ d</w>
apos; s</w>
▁m at
w▁ h
a il
▁p ublic</w>
▁p ur
id ent</w>
r ap
in k</w>
▁d es
▁a m
▁q u
b l
an s
ow n</w>
h er
al ▁
ac h</w>
i a</w>
b er</w>
▁w ith
▁p ol
c er
o▁ f</w>
▁st ud
g an
wi▁ th</w>
at ing</w>
C h
▁man y</w>
itt ee</w>
os e</w>
▁pro v
▁li ke</w>
i ver
h er</w>
k ed</w>
▁f in
ic al</w>
▁g overnment</w>
e a▁
ig h</w>
▁ha d</w>
ing s</w>
ol d</w>
u r</w>
en d</w>
▁H e</w>
por t
▁i ts</w>
in ce</w>
j ect</w>
ti cip
▁Wh en</w>
ar ge</w>
▁ap p
ti ve</w>
evel op
m s</w>
t▁ ed</w>
▁p os
▁t wo</w>
il d
ur r
b e▁
&a▁ pos▁
gan iz
d is
a ve</w>
ti f
▁on ly</w>
c c
▁ ot;</w>
r is
▁b u
▁y our</w>
en ter</w>
▁e l
ig n</w>
, 0
▁d r
▁o p
e b
er ▁
i▁ n</w>
h a▁
ea se</w>
ab lis
ac k</w>
e w
▁s m
d o</w>
▁s tr
▁man ag
ec ess
▁k n
ep ar
pro v
e ti
ul tur
o y
f l
s el
▁th rough</w>
ti▁ on</w>
S e
▁f l
▁Pro vince</w>
v en
▁the m</w>
▁f ollow
t▁ h
▁n o</w>
it s</w>
a w
i ed</w>
b le</w>
▁d ec
el l
ul ar</w>
▁a re
▁t ea
K or
y st
▁t er
▁d el
ec h
et ro
ri v
a▁ re</w>
&ap▁os ;
▁W e</w>
il y</w>
▁w on</w>
d in
ou s
▁S t
w▁ as</w>
▁n um
duc ation</w>
tic le</w>
ff er
ent ly</w>
et w
▁includ ing</w>
f r▁
i tion</w>
ear s</w>
ul t</w>
▁Ch in
w as</w>
ark et</w>
ecess ary</w>
▁s erv
▁w ould</w>
▁in cre
an n
e▁r s</w>
en d
▁th ink</w>
an ies</w>
q▁u ot;</w>
▁e st
▁d ay</w>
▁ al</w>
ti es</w>
et y</w>
▁D o</w>
▁d ue</w>
ou l</w>
▁sh ould</w>
▁sup port</w>
overn or</w>
▁v is
ro ▁
h e▁
at er</w>
▁ne w</w>
s u▁
▁P ar
em s</w>
s i▁
ill ion</w>
ex t</w>
enc y</w>
▁n ecessary</w>
ev er</w>
i p</w>
▁b usin
is t
ff ice</w>
at es</w>
▁u se</w>
etro pol
ap p
il ▁
▁num ber</w>
&a▁pos; ▁t</w>
e h
il ity</w>
u p
er ation</w>
▁U n
r y</w>
it ed</w>
▁in ves
ou gh</w>
ol og
▁m ade</w>
a▁ ll</w>
▁loc al</w>
v er</w>
t ly</w>
▁c re
&a▁pos; ▁s</w>
e ther</w>
▁C omm
ur ing</w>
as ed</w>
l i
id ents</w>
▁rec e
ag rap
ang e</w>
ic ation</w>
id ed</w>
▁memb ers</w>
▁m ed
▁t ake</w>
▁e ach</w>
er y</w>
▁pro m
▁f i
▁s pec
an ts</w>
for e</w>
▁c ar
j u</w>
▁e t
p r▁
wi▁ ll</w>
tr ac
ro w
▁w ant</w>
v is
▁ex pec
I n
▁v ar
p h
▁hel d</w>
▁g o</w>
a▁ l
,0 00</w>
j ec
s ti
▁d on</w>
il ities</w>
a id</w>
▁com pl
ou th</w>
▁@ -@</w>
s t▁
▁h igh</w>
s s</w>
▁est ablis
▁ h
▁s e
e▁ re</w>
▁l ast</w>
▁or der</w>
▁par ticip
▁in to</w>
v ▁
com p
d ay</w>
ech n
▁st ar
iz ed</w>
s ec
▁s c
t ro
▁d o
▁m ake</w>
et ing</w>
▁Ar ticle</w>
p on
o▁ ng</w>
rou nd</w>
o▁ r</w>
m inis
▁20 1
▁f e
▁ap pl
▁comp anies</w>
K ▁
▁d et
ic es</w>
▁p h
▁ex per
▁wor k</w>
as s
w or
ud g
▁c o
en ti
▁re qu
v i
▁g ood</w>
ter n
▁g et</w>
ea l
▁per form
▁y ears</w>
o k</w>
▁follow ing</w>
▁per son</w>
a▁ s</w>
ou nd</w>
p le</w>
i ons</w>
fr▁ om</w>
or th</w>
▁b l
tr ▁
▁g re
ec ted</w>
or ding</w>
▁J ap
gh t</w>
▁f am
▁g r
ultur al</w>
yst em</w>
er m
o ve</w>
▁pro c
th at</w>
t ac
▁u s
f ac
ar g
w ith</w>
us t
i▁ ty</w>
w on</w>
▁di rec
ic ▁
▁o ver</w>
▁a m</w>
i als</w>
▁busin ess</w>
▁e ver
▁an y</w>
i▁ al</w>
as es</w>
ti▁ ng</w>
is e</w>
iz e</w>
▁sch ool</w>
re n</w>
agrap h</w>
▁c oll
in▁ ce</w>
i ence</w>
ti c</w>
▁d evelop
▁m arket</w>
s id
ec tion</w>
i▁ ch</w>
▁s el
▁G overnor</w>
r ed</w>
▁comp any</w>
re l
en er
▁b r
m e
oun t</w>
▁manag ement</w>
a▁ t</w>
▁ne ed</w>
c o▁
▁pl ace</w>
u g
▁ac tiv
w h▁
c ri
▁g o
s he</w>
ow er</w>
▁ter m</w>
vin cial</w>
▁at ten
y ing</w>
k ▁
ap o▁s
a▁ n</w>
▁w ell</w>
etw een</w>
con om
▁Y ou</w>
f e</w>
▁m ost</w>
s pec
▁i s
▁or ganiz
2 0
▁ind us
u tion</w>
▁m ov
minis tr
oc i
in d
▁an n
p re
u al</w>
▁o ur</w>
on d</w>
▁s ur
ut e</w>
in d</w>
un ▁
c .</w>
▁tr ans
r i▁
e ts</w>
▁th ree</w>
is t</w>
▁b etween</w>
w▁h o</w>
v ir
i▁ s</w>
j ▁
&▁ qu
e in
com m
er g
e ong
▁Comm ittee</w>
si ble</w>
▁g u</w>
▁ev en</w>
&a▁pos; t</w>
a▁ te</w>
&a▁pos; m</w>
▁e ar
l l
▁L ee</w>
▁are a</w>
▁con cer
▁var ious</w>
en g
u p</w>
w ay</w>
o l</w>
▁ex c
▁wh at</w>
en ▁t</w>
at▁ ed</w>
; t</w>
▁l ot</w>
ak ing</w>
o▁n s</w>
n am</w>
th ing</w>
S ▁
▁per s
▁h ow</w>
p s</w>
▁s ome</w>
G overn
▁a ff
▁wh ile</w>
i od</w>
t▁ s</w>
rou p</w>
▁N orth</w>
&▁ apos;</w>
es t
u ation</w>
ti g
e ong</w>
▁c er
r din
▁pro ject</w>
▁F or
▁ er</w>
apos ▁
a i▁
▁g u
h▁ as</w>
▁c ould</w>
her ein
ul ture</w>
▁s ince</w>
▁be ing</w>
s p
▁pro bl
ou ng</w>
▁stud ents</w>
ild ren</w>
f ir
▁Se oul</w>
a u
▁1 9
▁e ducation</w>
▁P l
an▁ ce</w>
o ther</w>
form ation</w>
vir on
▁r em
▁c r
▁par agraph</w>
▁ ts</w>
ea d</w>
a▁ l</w>
ou se</w>
p o▁s
&a▁pos▁ ;s</w>
▁res idents</w>
▁b el
▁1 1</w>
▁n ext</w>
▁u sed</w>
▁m ea
▁A l
▁n ow</w>
ain ing</w>
▁cont in
▁di ffer
▁a ss
m ents</w>
▁&qu o▁t;</w>
▁d uring</w>
t ors</w>
▁pl an</w>
air s</w>
▁d ays</w>
&▁ quot;</w>
▁with in</w>
▁& apos;s</w>
▁l iv
n ed</w>
ar m
o k
▁w r
▁m a
t a
b u
▁Th at</w>
op e</w>
t ain</w>
▁e conom
o▁ ut</w>
▁be fore</w>
an ag
tr ic
s e▁
▁s ystem</w>
af t▁er</w>
y e▁
▁bu il
▁Chin a</w>
en s</w>
al e</w>
s c
▁S h
▁A t</w>
di tion</w>
m y</w>
▁c or
tr ib
▁ex pen
l es</w>
▁l ong</w>
▁T r
iver s
▁1 0</w>
▁f r
▁t a
▁mat ters</w>
&a▁ po▁s
un g
▁oper ation</w>
y p
▁con duc
e o</w>
y ou</w>
m er</w>
▁o f
▁a s
op er
▁fac ilities</w>
▁s ee</w>
▁kn ow</w>
▁ n
▁E n
a k</w>
▁et c.</w>
▁o ver
▁s l
ic k
▁wor ld</w>
▁pur su
S .</w>
▁h er</w>
anc es</w>
▁expec ted</w>
▁f ood</w>
oc k</w>
o b</w>
▁P res
tr ies</w>
por ts</w>
t u▁
Pro v
& apos;s</w>
l i▁
▁is su
d e</w>
i e
▁r ight</w>
c▁ h
air per
▁C on
▁s ame</w>
c oun
▁A m
el d</w>
▁m us
m a▁
▁pl ay
▁j ust</w>
G yeong
m o▁
▁m in
▁offic ial</w>
▁di ffic
as s</w>
emb er</w>
▁M inis
▁v ery</w>
▁rel ated</w>
sh ip</w>
m is
▁p op
s tr
d iti
▁d e
pro ▁
▁e ff
m ed
oc ial</w>
▁c ases</w>
i um</w>
it▁ an</w>
▁tea m</w>
▁sm all</w>
or t</w>
i▁ es</w>
o or</w>
f ul</w>
ec ▁
▁me eting</w>
ci l</w>
an k</w>
tac hed</w>
▁s it
▁w ee
si ve</w>
e▁ c
ain ed</w>
▁m uch</w>
▁Par k</w>
pl ▁
t a▁
p o▁r
wh i▁ch</w>
om en</w>
at▁ ion</w>
▁n o
▁A cc
etropol it▁an</w>
olog y</w>
ti me</w>
▁ d</w>
r ic
▁ins ti
▁ le</w>
▁am ong</w>
▁ev ent</w>
▁b udg
o▁ ul</w>
i an</w>
▁with out</w>
▁des ign
y ear</w>
▁f ri
l oc
n ot</w>
▁c ase</w>
▁sh ow
▁o ffice</w>
m an</w>
w n</w>
epar tment</w>
at ely</w>
▁in formation</w>
1 ▁
od ay</w>
sel f</w>
jec ts</w>
▁produc ts</w>
▁em pl
▁s ea
ic y</w>
ch eon</w>
▁be g
▁im pl
it ing</w>
a z
▁a round</w>
e▁ n</w>
▁pro vince</w>
▁Pres ident</w>
▁p oin
un d
h as</w>
▁v i
▁serv ice</w>
truc tion</w>
▁r oo
▁O n</w>
▁b ro
on▁ al</w>
a w</w>
al ity</w>
ul ▁
b e
▁C ity</w>
▁f u
▁ch ildren</w>
▁A n
n o▁
n er</w>
fer red</w>
Se o▁ul</w>
▁b o
re g
& q▁uot;</w>
th is</w>
▁per iod</w>
▁l arge</w>
▁h ear
c ed</w>
▁w ay</w>
is h</w>
am p
▁t re
▁res pon
ot al</w>
. S.</w>
▁rece iv
▁A fter</w>
s a▁
v en</w>
it al</w>
i▁ c
an ese</w>
▁o ut
▁li fe</w>
Kor e▁
e ed</w>
res s</w>
an cial</w>
▁c urr
i onal</w>
▁&qu ot▁;</w>
a▁ c
▁th ese</w>
ee p</w>
h o▁
ch ▁
▁N ational</w>
▁Th ey</w>
▁ex pl
us ▁
Govern me▁nt</w>
▁Acc ording</w>
ow ever</w>
▁d id</w>
▁G ang
a e
▁t ri
▁E x
▁s al
▁f il
▁in st
▁pursu ant</w>
en▁ ts</w>
ar ds</w>
on▁ g</w>
m e▁
es tiv
t e▁
ear ch</w>
▁al l
el ▁
▁ever y</w>
is m</w>
▁d em
▁ex p
ent al</w>
a ff
▁ad dition</w>
▁h igh
▁ch ec
d▁ er</w>
i▁ ce</w>
▁&qu ▁ot;</w>
all ed</w>
▁perform ance</w>
M etropolit▁an</w>
ro w</w>
es ▁
i▁ on</w>
e x</w>
▁rea l
▁s ti
▁ch arge</w>
in c
▁t echn
▁inves tig
▁g row
og ether</w>
Prov in▁ce</w>
▁pro vincial</w>
▁o b
ut es</w>
uc c
a ir</w>
▁coun try</w>
r▁ ed</w>
▁im port
re ad
c o
ag es</w>
ot e</w>
r u
ot h</w>
is ion</w>
▁A ct</w>
▁un der
▁m illion</w>
ffic i
▁s ol
m p
▁at tached</w>
d u
ev ant</w>
un ity</w>
h▁ is</w>
w ill</w>
th er
▁c enter</w>
▁t otal</w>
a is
▁s om
▁mon th</w>
▁en tr
▁indus try</w>
t en</w>
▁Wh ere</w>
h ib
com e</w>
b▁ ut</w>
it an</w>
▁par tic
▁in ten
▁Pl ease</w>
vin c
su p
▁dis c
in ed</w>
an t
▁c our
i e</w>
ul ts</w>
ar s</w>
k ers</w>
ust om
u▁ n
▁f un
▁ad v
en tr
em ▁
s an</w>
▁o cc
▁ch ar
ati o▁n</w>
l ed</w>
for m</w>
▁Wh at</w>
ha▁ ve</w>
por ted</w>
▁pro f
▁g ener
p▁ l
em e▁nt</w>
P ▁
ak es</w>
g u</w>
ivers ity</w>
ati on
▁fac t</w>
▁c ity</w>
v es</w>
rdin ance</w>
el f
z e</w>
su res</w>
▁w ater</w>
w ard</w>
ac k
▁pr ice</w>
▁ex am
f r
▁S outh</w>
s ur
▁H owever</w>
at her</w>
▁h ere</w>
▁s ign
s h▁
ep t</w>
▁ma j
▁develop ment</w>
▁prov ide</w>
il it
ea s</w>
▁insti tu
p ris
&qu ▁ot;</w>
o o▁
e t▁
ul t
l ine</w>
e ign</w>
y o▁
airper son</w>
&qu o▁t;</w>
▁pro gr
s erv
in ation</w>
i▁ t</w>
▁a ud
ol ▁
ay ing</w>
▁ann oun
▁pol ice</w>
▁C enter</w>
▁Th en</w>
▁com e</w>
p▁ os
▁o pen
▁re port</w>
ic s</w>
▁sec ond</w>
▁en ter
d en</w>
is ▁
0 ,000</w>
w ang
v ing</w>
re t
▁ er
▁b as
▁ne w
▁g l
▁pre v
or d
f rom</w>
sh a▁ll</w>
▁rel evant</w>
i g</w>
p r
ou ght</w>
▁ch ang
an ding</w>
p ed</w>
▁s en
us e</w>
m it</w>
at ur
▁fam ily</w>
i or</w>
th e▁
▁) )</w>
▁th ose</w>
▁w at
es ted</w>
m ed</w>
& apos;</w>
c a▁
ac c
▁U .S.</w>
▁t al
et ter</w>
▁r o
▁t im
▁probl em</w>
o y</w>
om ▁
▁S o</w>
t▁ h</w>
l e▁
▁r et
▁e as
ti l</w>
▁e nd</w>
em ent
▁offic ials</w>
▁partic ular</w>
▁bec ome</w>
h is</w>
▁u s</w>
ch ed</w>
▁t oo</w>
▁i t
▁wh y</w>
in es</w>
▁i d
ec u
▁cons id
en ds</w>
▁differ ent</w>
Kore▁ an</w>
▁ad ministr
od y</w>
▁h im</w>
▁H y
e on
▁import ant</w>
C ▁
ol e</w>
▁par t</w>
h ing</w>
▁b ack</w>
ti o▁n</w>
f i▁
▁O rdinance</w>
en t▁
▁ch ange</w>
o tion</w>
▁d epartment</w>
b r
▁incre ase</w>
iz ation</w>
▁budg et</w>
at a</w>
▁st at
▁hel p</w>
▁Jap anese</w>
s▁ t
os p
an ds</w>
▁in tro
ef t</w>
▁pos sible</w>
▁in c
i re</w>
g u
A ▁
ea d
a▁ ge</w>
▁in v
▁expen ses</w>
▁re ferred</w>
▁spec ial</w>
n ow</w>
er ing</w>
pos e</w>
d r
th s</w>
▁f ul
u ty</w>
b ▁e</w>
▁g roup</w>
ro u▁
▁f ound</w>
▁memb er</w>
▁d oc
n▁ ot</w>
f o▁r</w>
h y
▁en viron
▁Chin ese</w>
con s
as ter</w>
▁diffic ult</w>
b ed</w>
▁roo m</w>
▁re v
ac t</w>
▁ag ain</w>
i▁ s
d ic
z ens</w>
▁S he</w>
▁s k
▁re f
▁am ount</w>
▁ gi</w>
▁s ocial</w>
▁s ay</w>
▁hea l
▁c ame</w>
th ough</w>
▁F or</w>
l d
▁C oun
ye ong</w>
▁pro t
on y</w>
▁r ate</w>
▁comp eti
▁l o
re fer
c es</w>
▁cons truction</w>
a▁r y</w>
al f</w>
▁h ous
▁go ing</w>
as ▁
▁h ome</w>
▁aff airs</w>
il d</w>
ev ▁
▁wh ether</w>
▁d ef
s ing</w>
▁contin u
p ly</w>
or k</w>
&qu ot▁;</w>
tic s</w>
▁produc t</w>
▁sti ll</w>
p ing</w>
▁m ar
▁Jap an</w>
p ri
on ed</w>
▁c ulture</w>
om es
al y
▁s he</w>
▁rea son</w>
▁cont ro
on t</w>
d u▁
▁l oo
K▁ or
▁activ ities</w>
▁M oon</w>
▁h ope</w>
C omm
v ed</w>
estiv al</w>
ain s</w>
▁su per
▁t ogether</w>
▁m ain
o s</w>
ac ▁
▁pre par
s l
b u▁
▁fin ancial</w>
a▁ tion</w>
▁O n
pres ent
i ev
l▁ y</w>
▁pres cri
ir ed</w>
h ave</w>
▁s im
▁m ain</w>
▁det erm
Gyeong ▁gi</w>
▁sub sid
po▁r t</w>
en ted</w>
M ▁
▁th en</w>
ri ed</w>
▁pro jects</w>
▁proc ess</w>
▁In d
▁M y</w>
trac t</w>
▁compl et
▁per c
G ▁
refer r▁ed</w>
b een</w>
s o▁
▁p ay</w>
is ts</w>
& apo▁s
l ▁e</w>
▁p aid</w>
s e
id n</w>
tu res</w>
n e▁
if ic
▁sa f
▁inter est</w>
▁b est</w>
▁c ustom
l o▁
▁wor king</w>
b ut</w>
ac h
▁p ay
ar t
igh ts</w>
riv ate</w>
ar t</w>
us an</w>
▁h um
▁A ss
▁l ear
▁som e
enti al</w>
▁t oday</w>
▁res ults</w>
wh o</w>
▁gre at</w>
▁w omen</w>
▁m od
ch ing</w>
o▁n e</w>
s ure</w>
um p</w>
s m
p o▁
o ye
▁tr ad
a u▁
us tr
he▁ ad</w>
read y</w>
▁coun tries</w>
▁del ib
if e</w>
▁exper ience</w>
▁c ultural</w>
▁rec or
u th
herein aft▁er</w>
g overn
ec tr
▁b ea
ev el</w>
ea sed</w>
l▁ ed</w>
▁2 0</w>
elf are</w>
ob al</w>
du ce</w>
n ess</w>
ur ▁
l s</w>
d e▁
▁mon ey</w>
ain st</w>
▁w ent</w>
▁mea sures</w>
▁d own</w>
oun d
y▁ ou</w>
▁sh ar
a fter</w>
our s</w>
▁m ust</w>
▁us ing</w>
▁app ly</w>
▁g ive</w>
▁sit uation</w>
▁e qu
▁l im
duc ed</w>
v ▁e</w>
▁w in
y ung</w>
▁f ive</w>
▁g iv
a i</w>
▁d am
▁d iv
▁char ac
▁ne ed
▁l eft</w>
e ed
▁n ational</w>
& apos;
etropol itan</w>
in ves
&a▁ p▁os
▁S ince</w>
s ch
u nd</w>
▁c ol
si b
as te</w>
omes tic</w>
▁s ing
w ays</w>
am s</w>
ul ation</w>
t e
▁appl ication</w>
eh ic
d le</w>
▁are as</w>
si a</w>
i ke</w>
s ide</w>
▁B ut</w>
yo▁ u</w>
at ure</w>
▁Al though</w>
▁u r
▁for eign</w>
▁Minis try</w>
ur n</w>
▁ins pec
▁im prov
apos▁ ;s</w>
▁f our</w>
l a▁
ib le</w>
a▁n t</w>
▁establis h</w>
ati c</w>
▁pl ease</w>
pos ed</w>
▁fu ture</w>
▁y oung</w>
▁s er
▁receiv ed</w>
o i</w>
▁tim es</w>
▁inter n
▁res ult</w>
2 ▁
▁c ap
▁Y es</w>
lis h</w>
▁n ame</w>
▁S am
ol s</w>
w▁ on</w>
▁s ucc
es ts</w>
▁un til</w>
▁M ar
▁b re
u le</w>
▁3 0</w>
ay or</w>
in ter
▁h ol
▁do es</w>
s ub
r a▁
s▁ h
▁d ata</w>
▁app oin
▁p ic
▁on ce</w>
am es</w>
▁chec k</w>
▁s et</w>
g o</w>
at t
▁E ven</w>
▁h ouse</w>
▁b illion</w>
is si
at h
▁wee k</w>
▁A n</w>
▁en j
th▁ is</w>
en▁ ce</w>
m ak
er ed</w>
m .</w>
▁maj or</w>
m anag
▁mat er
▁p rivate</w>
n s</w>
▁fe el</w>
▁ear ly</w>
al u
▁pers ons</w>
h▁ er</w>
m on
e▁ ss</w>
▁pl ans</w>
▁st and
▁l eg
tric t</w>
t ute</w>
ab or</w>
▁j oin
▁j ob</w>
▁buil ding</w>
ti ce</w>
w e▁re</w>
K im</w>
c▁ an</w>
▁g ame</w>
▁dr am
▁comm ittee</w>
▁A c
L ▁
su ng</w>
en ing</w>
vi ew</w>
▁cons um
ov er</w>
l▁ l</w>
be▁ en</w>
ti s
▁ n</w>
it▁ h</w>
▁t em
el s</w>
▁saf ety</w>
▁requ est</w>
▁h ist
▁ex ch
▁c aus
▁h ard</w>
▁ th</w>
m it
t o▁
Kor ea</w>
▁ph ot
▁fi re</w>
ul ar
▁t our
▁pay ment</w>
▁t ook</w>
▁et c</w>
▁v ol
▁p as
▁ p
▁mus ic</w>
g s</w>
a p</w>
▁sal es</w>
▁s ite</w>
▁d ep
▁gener al</w>
s y</w>
▁econom ic</w>
▁atten tion</w>
▁H ow</w>
i o</w>
▁fin d</w>
▁incre ased</w>
▁establis hed</w>
w e▁
▁vis it</w>
▁st or
th▁ er</w>
▁sh ow</w>
ea l</w>
ur ity</w>
U n
▁w ea
▁b ased</w>
▁c iv
y u</w>
o ff
f am
T he</w>
res id
i x</w>
▁a uth
at ten
a▁n s</w>
in al</w>
▁In tern
f ri
iv id
e y
w▁ ill</w>
ev en</w>
il i
u res</w>
▁b oo
e▁ ct</w>
en se</w>
K or▁
▁op in
o▁ us</w>
ill age</w>
u▁ l
▁l ow</w>
▁E ducation</w>
i al
▁re p
▁reg is
▁d ate</w>
m ore</w>
ilit ary</w>
c o▁n
ar d
▁th ▁e</w>
▁t yp
a▁ t
o f
▁of f</w>
a il</w>
w o▁r
&a▁pos▁ ;t</w>
t▁h at</w>
▁c iti
1 9
li ke</w>
▁c ou
g lish</w>
s aid</w>
▁se ems</w>
d es
▁pur ch
▁ab le</w>
k er</w>
▁For m</w>
d▁ ed</w>
▁announ ced</w>
▁p ower</w>
▁d omestic</w>
▁d idn</w>
et t
▁tr av
ub l▁
en ter
pro duc
or ity</w>
▁pur pose</w>
▁con fir
es si
em ed</w>
▁fr ont</w>
▁pol icy</w>
as ing</w>
▁l ook</w>
ac es</w>
▁s w
y n
▁C om
oo ds</w>
all s</w>
▁u p
▁ex hib
▁sur v
b▁ er</w>
▁ex pres
or ganiz
em pl
▁g ot</w>
o▁ re
at or</w>
a▁ m
T ▁
d ent</w>
&▁qu o▁t;</w>
id dle</w>
K▁ im</w>
▁ag ainst</w>
▁G wang
▁v id
▁perc ent</w>
▁p ri
▁al ready</w>
▁me ans</w>
▁prov ided</w>
▁ag re
un ic
G yeonggi</w>
▁u n</w>
er ▁s</w>
▁& q▁uot;</w>
▁G overnment</w>
con ▁
▁s us
▁s epar
il▁ l</w>
tif ic
a▁ y</w>
▁p ubl
p e</w>
k i▁ng</w>
id es</w>
▁empl oye
t or
ad c
▁B usan</w>
itt le</w>
ou▁ ld</w>
▁med ia</w>
ati on▁al</w>
▁I s</w>
p er</w>
o ti
i▁ ts</w>
iti ▁
▁administr ative</w>
▁o wn</w>
m en▁t</w>
▁m aking</w>
▁li k
▁b ur
▁l et</w>
▁c alled</w>
ir c
▁c os
▁ ot▁;</w>
o ols</w>
ecu tive</w>
er e
ret ary</w>
in clud
▁investig ation</w>
▁c ar</w>
▁ or</w>
▁re ported</w>
▁of ten</w>
ud d
▁techn ology</w>
▁ta x</w>
oy ment</w>
▁qu es
c an</w>
p▁ ro
▁Coun cil</w>
▁20 0
b usin
ti▁ me</w>
p are</w>
enc es</w>
A r
▁re present
▁h alf</w>
▁“ “</w>
ig ▁h
▁s um
▁pop ular</w>
▁p ast</w>
i▁ l
b▁ y</w>
; m</w>
▁tr aining</w>
▁m is
u▁ r
▁h ours</w>
▁h app
u ally</w>
ir d</w>
e duc
▁rece ive</w>
▁r is
▁J ung</w>
air man</w>
▁f ree</w>
▁rec omm
▁v ehic
om s</w>
▁b us</w>
▁a v
ann ot</w>
th a▁t</w>
g g
▁particip ate</w>
▁direc tor</w>
▁fe es</w>
▁f ans</w>
ubl▁ ic</w>
N ▁
ang u
▁rea l</w>
▁all ow
w ere</w>
▁ever y
▁W ith</w>
is ting</w>
o ffic
▁J e
in ten
▁pl an
iti onal</w>
▁wor kers</w>
▁b ook</w>
Pro vinc
▁par ty</w>
▁C an</w>
y o</w>
▁l evel</w>
▁ag ency</w>
▁star t</w>
▁l ove</w>
▁G yeong
▁liv ing</w>
ou▁ n
▁g en
▁for m
l ing</w>
or por
l ess</w>
f in
▁g overn
D ▁
▁b ody</w>
ti on
& q▁u
▁environ ment</w>
s y
▁heal th</w>
▁ st</w>
t e▁r
▁N ew</w>
ie f</w>
b ec
▁a ut
t re
t▁ r
E n
ex p
▁li ve</w>
i ally</w>
pro ve</w>
em ony</w>
▁Un iversity</w>
ous ly</w>
▁det ail
e▁ st</w>
▁under st
▁serv ices</w>
▁pre pare</w>
▁h and
▁c are</w>
▁bec ame</w>
▁op en</w>
▁acc ording</w>
▁J ae</w>
▁D ec
t▁ or</w>
us ed</w>
▁s ide</w>
b an</w>
h av
. m.</w>
▁th ings</w>
▁me th
su▁ ch</w>
re qu
or row</w>
h i▁
▁em erg
e▁ x
▁sel ected</w>
th ers</w>
▁o ld</w>
▁loc ated</w>
▁Tr ump</w>
▁th ought</w>
▁an aly
m b
G u</w>
s▁ o</w>
▁R es
▁prom ote</w>
▁dec ided</w>
▁f oc
▁conduc ted</w>
g er</w>
es ter
Kor▁ ea</w>
▁entr us
▁O ffice</w>
ac tiv
▁pr ices</w>
t▁ ion</w>
z ed</w>
per ▁
m in
▁F r
▁b oth</w>
si an</w>
p a▁
d evelop
d i▁
ch ool</w>
ar k</w>
▁concer ning</w>
d ong</w>
d ers</w>
20 1
▁s end</w>
▁M ayor</w>
ver y</w>
con t
a▁ ng</w>
▁pro per
▁a w
▁star ted</w>
ther n</w>
▁res earch</w>
ec ts</w>
sib ility</w>
r d</w>
▁mov ie</w>
▁str ong</w>
▁ful l</w>
eop ▁le</w>
▁U S</w>
▁& apos;</w>
▁c annot</w>
▁S u
▁vi ol
truc ture</w>
▁ta x
ta ur
▁an other</w>
▁W or
▁con ven
▁econom y</w>
▁s aying</w>
th▁ an</w>
▁me an
b o
at eg
▁w ar
▁res taur
s eas</w>
oci ety</w>
▁m ilitary</w>
S t
urr ed</w>
f o▁r
c al</w>
▁b etter</w>
e ir</w>
▁w a
▁H ong</w>
m at
a un
d▁ o</w>
ar i
▁in t
em or
h ment</w>
▁sub ject</w>
▁ ing</w>
ar ed</w>
og n
ati s
in s
▁min utes</w>
▁r ais
▁beg an</w>
th▁ ey</w>
er c
ie ve</w>
comp an
pos ition</w>
em ents</w>
a▁n y</w>
▁o w
iti ▁es</w>
erg y</w>
▁cl os
▁citi zens</w>
ess es</w>
H ▁
s▁ on</w>
qu ar
d ec
i▁n e</w>
▁En glish</w>
as t
▁des ign</w>
ear ▁
▁sch ed
s ons</w>
an ks</w>
▁real ly</w>
ic ies</w>
▁str eng
▁b ig</w>
▁acc ord
ul es</w>
s w
▁progr am</w>
u▁ n</w>
. ▁
▁c ost</w>
▁al ways</w>
c ement</w>
on om
▁n eg
▁rel eased</w>
oc r
for m▁
d e
e▁ l
ti c▁
en t▁er</w>
▁inves tment</w>
um ents</w>
med i
▁p ut</w>
▁or ig
▁S up
ultur ▁al</w>
▁con c
▁A nd</w>
i on
em p
the▁ ir</w>
al▁ so</w>
p ur
▁sub mit</w>
▁organiz ations</w>
▁pr in
▁cor por
n▁ g</w>
t▁ y</w>
i qu
e um</w>
ex ▁
▁D ong</w>
▁pol iti
▁res ol
▁m or
▁issu e</w>
▁fi eld</w>
di rec
al▁ l</w>
ow n
it t▁
▁prescri bed</w>
▁a way</w>
tu▁ re</w>
v i▁
re s▁
op eration</w>
▁s oon</w>
▁oper ate</w>
▁no tif
un e</w>
ti m
▁acc oun
▁1 0
▁con tract</w>
▁Sam sung</w>
▁h osp
wh▁ en</w>
u b</w>
be▁ c
▁m ark
t ain
ab ▁le</w>
▁sc en
as h
al uation</w>
B ▁
▁med ical</w>
c t
h ead</w>
sti tute</w>
A ct</w>
▁me et</w>
o▁ m
mis sion</w>
it er
▁offic er</w>
▁grow th</w>
&a▁p▁os ;s</w>
▁an y
y e</w>
e▁ on</w>
et ting</w>
D is
▁l ess</w>
re am</w>
▁gl obal</w>
▁cre ate</w>
▁organiz ation</w>
▁delib eration</w>
f er</w>
1 0</w>
▁p ain
tr i▁
s▁ ed</w>
n o</w>
an u
▁lea st</w>
▁at trac
▁S ome</w>
w a▁s</w>
▁kn own</w>
▁n or
▁gr ad
▁dis trib
m▁ ent</w>
g r▁
d y</w>
▁mon ths</w>
▁hear d</w>
▁poin t</w>
0 s</w>
▁& apo▁s
u▁ ng</w>
▁n atur
▁Am ong</w>
sti tu
ul ations</w>
▁t om
▁institu tions</w>
▁for mer</w>
oci ation</w>
f o▁
▁wor ks</w>
▁trad itional</w>
is hed</w>
f i
▁pl ay</w>
▁ev ents</w>
tu al</w>
n ew</w>
ea t</w>
e ans</w>
f ollow
▁accord ance</w>
herein after</w>
an ted</w>
sa▁ id</w>
l and</w>
▁d u
ch es</w>
en ef
m ost</w>
e▁ t</w>
▁hum an</w>
▁d riv
▁as ked</w>
▁E l
▁A d
▁ch ild</w>
j in</w>
ep end
at ment</w>
▁D a
ak en</w>
▁w elfare</w>
no▁ t</w>
it▁ y</w>
er ic
ur ch</w>
l▁ d</w>
all ing</w>
ea m</w>
▁D is
J ▁
id ▁
mo▁ re</w>
▁lik ely</w>
w an</w>
on es</w>
st ud
ea s
▁vid eo</w>
▁conduc t</w>
a▁ r</w>
ob s</w>
ill s</w>
▁p er</w>
▁B r
fir ▁st</w>
▁cer emony</w>
in a</w>
▁curr ent</w>
e ung</w>
ati o▁ns</w>
▁competi tion</w>
y our</w>
i▁ g
ir ▁
▁th ▁
tic al</w>
▁t op</w>
▁l ittle</w>
▁im prove</w>
▁S p
id ing</w>
R W</w>
▁fac ility</w>
▁al ong</w>
▁f ea
oun tain</w>
op ▁
g et</w>
e es</w>
▁sp ace</w>
d o▁
▁open ing</w>
▁N o</w>
ci es</w>
▁sel f</w>
al k</w>
ectr on
ag ed</w>
▁prom otion</w>
ic▁ h</w>
▁l aw
iv er</w>
▁contin ue</w>
▁par ents</w>
▁n ever</w>
▁h old</w>
e▁ ly</w>
ati▁ ve</w>
▁vis ited</w>
ye on</w>
oc al</w>
el ec
&a▁po▁s ;s</w>
▁produc tion</w>
and id
ea v
▁op port
▁del iver
i▁ d
▁M any</w>
ill ed</w>
ai▁ d</w>
for ▁
ab ility</w>
2 0</w>
C on
▁con diti
▁M ay</w>
ex pec
▁c anc
b as
▁equ ip
ap e</w>
▁stud y</w>
▁pr ac
▁& apos;
ld n</w>
3 0</w>
&ap▁os; l▁l</w>
▁p ass
s um
rou▁ gh</w>
▁1 5</w>
f▁ f
▁e ffici
mit ted</w>
if ied</w>
am ▁
▁l ater</w>
▁ch airperson</w>
▁M etropolitan</w>
g▁ u</w>
▁t ell</w>
▁rec ently</w>
▁T a
▁re fl
▁cour se</w>
m o
el t</w>
▁play ers</w>
▁m an</w>
ot el</w>
&ap▁os ▁
▁activ ely</w>
u ly</w>
u ro
n ov
itt en</w>
c ul
▁k eep</w>
▁ y</w>
m emb
▁Minis ter</w>
y ang</w>
▁qu ality</w>
▁l and</w>
▁fri ends</w>
ig▁h t</w>
▁probl ems</w>
al▁ ly</w>
▁v al
▁p at
▁en d
au▁ se</w>
eg r
▁st ate</w>
ot ing</w>
▁ind ivid
▁hist ory</w>
▁n ight</w>
a▁l s</w>
▁ex ecutive</w>
ye▁ ar</w>
▁prev ent</w>
▁l ate</w>
p a▁r
ar ▁e</w>
ug g
ound ation</w>
▁P ol
es sion</w>
ep t
a in▁
▁employe es</w>
g re
ch ers</w>
▁determ ined</w>
o ice</w>
▁f arm
v ely</w>
e ff
b or
▁particip ated</w>
▁l arg
it ors</w>
ti l
angu age</w>
▁comm unity</w>
▁On e</w>
i rec
w ang</w>
5 0</w>
▁fri end</w>
ex per
as h</w>
▁Pro vincial</w>
a▁ y
▁t aking</w>
▁th em
f ul
ew s</w>
en s
ch er</w>
▁mater ials</w>
▁a f
an k
m▁ an</w>
emb ly</w>
▁ro ad</w>
▁chang ed</w>
▁new s</w>
tr ial</w>
&▁qu ▁ot;</w>
par ticip
ha▁ s</w>
wor k</w>
w il▁l</w>
er ▁e</w>
c tion</w>
u▁ re</w>
com pl
K▁or ean</w>
▁exch ange</w>
▁enj oy</w>
ter ed</w>
gr ic
duc tion</w>
▁l abor</w>
ear ed</w>
cl es</w>
▁sch ools</w>
▁Par ty</w>
▁Ch oi</w>
ay ed</w>
▁l ed</w>
▁i ll
h s</w>
▁sec retary</w>
▁c ard</w>
n ers</w>
id ay</w>
C oun
apos▁ ;</w>
m ea
in king</w>
ab ▁
▁t ur
A ss
▁expl ained</w>
m ark
i▁ t
▁con f
es n</w>
▁bu y</w>
▁In cheon</w>
at ory</w>
▁g o▁
at ors</w>
in ess</w>
▁f ar</w>
▁civ il</w>
▁disc us
os eon</w>
m ov
▁inten ds</w>
▁h om
▁f ine</w>
▁cl ass</w>
▁F irst</w>
i et
▁s cre
▁T o</w>
▁1 00</w>
a▁r d</w>
C h▁
▁bro adc
▁show ed</w>
it al
en ess</w>
J ap
▁ad diti
ro▁ m</w>
▁dam age</w>
ver al</w>
t▁ ry</w>
r ing</w>
l iv
▁vol un
▁exper ts</w>
t wo</w>
i e▁s</w>
aff ic</w>
at her
ag ▁
a ud
▁tre atment</w>
▁pers on
▁v ic
o▁r y</w>
en t▁s</w>
tr ans
n el</w>
C om
▁st ore</w>
▁fl oor</w>
▁t est</w>
▁st age</w>
▁o ff
▁inspec tion</w>
e e▁
▁pro sec
▁complet ed</w>
or ts</w>
our ces</w>
ig h▁
d el
ti onal</w>
h igh</w>
c r
▁ap prov
▁a ge</w>
rel at▁ed</w>
g y</w>
▁de emed</w>
▁con n
▁c ri
o▁n g
▁s y
c le</w>
▁R ec
▁m iddle</w>
▁ev aluation</w>
s▁ t</w>
or ed</w>
▁prepar ed</w>
▁Un ited</w>
▁5 0</w>
ex c
g est</w>
p ubl▁ic</w>
▁con trib
en cies</w>
al so</w>
▁intern ational</w>
ec ause</w>
3 ▁
▁D ong
E x
E O</w>
▁some thing</w>
bu▁ t</w>
▁wor ds</w>
▁design ated</w>
t ory</w>
is ions</w>
&qu ▁ot▁;</w>
▁direc tly</w>
▁bas ic</w>
b o▁
K o▁re
for t
c▁ ed</w>
▁trav el</w>
▁a ▁s</w>
un der
▁a ir</w>
c are</w>
i o▁n</w>
▁exhib ition</w>
▁P er
▁tr y</w>
▁e at</w>
5 th</w>
m ing</w>
▁en ti
▁comm issi
ur al</w>
▁n on</w>
▁a ir
ven tion</w>
▁a ch
c our
a▁r s</w>
Se oul</w>
o▁r s</w>
g o▁
▁sh ort</w>
▁du ties</w>
ti o▁ns</w>
▁st ock</w>
h▁ ed</w>
▁dem and</w>
▁A b
e an
▁sea son</w>
▁it ems</w>
▁giv en</w>
e k</w>
s▁ es</w>
at▁ e</w>
ail y</w>
&▁ q▁uot;</w>
oc ▁
el ing</w>
p re▁
iz ing</w>
en ed</w>
; ▁s</w>
▁l ine</w>
▁l aun
▁1 2</w>
ob ile</w>
▁Am eric
ib er
▁f ir
▁appl ic
me ans</w>
ic k</w>
e ge</w>
▁s ociety</w>
▁impl ement</w>
▁ap pro
e ep
▁L et</w>
y le</w>
▁p en
s ol
p eop▁le</w>
▁F in
pri l</w>
e▁r y</w>
O rdin
▁ag o</w>
▁represent ative</w>
▁ar t</w>
▁Ch airperson</w>
s ite</w>
p o</w>
g o
▁B ecause</w>
o h
▁Mar ch</w>
p op
n i▁ng</w>
▁In stitute</w>
y ou▁
ro ss</w>
itt▁ ee</w>
▁rec ogn
bu k</w>
▁high er</w>
▁contro l</w>
▁Wh ile</w>
per form
il ar</w>
▁th ird</w>
re f
o th
▁ m</w>
port ation</w>
oc k
▁progr ams</w>
▁bec om
▁us er</w>
▁over seas</w>
▁in fl
▁c al
por ting</w>
fer ence</w>
▁v illage</w>
p tion</w>
p e▁
or din
fr as
a▁ ce</w>
au gh
▁impl ement
ad em
G ang
res pon
▁conditi ons</w>
▁b enef
w it▁h</w>
ro un
▁sec urity</w>
▁m akes</w>
▁f ew</w>
▁caus ed</w>
w e</w>
▁v er
▁agre ement</w>
uc l
▁pol icies</w>
t ress</w>
el eb
u k</w>
im ▁
▁mor ning</w>
▁f estival</w>
n am
ap er</w>
▁G od</w>
s ai▁d</w>
ot ed</w>
eh ol
▁ex isting</w>
▁st re
▁f ee</w>
w or▁
▁val ue</w>
▁H an
ur y</w>
d▁ ay</w>
oc c
▁ag ric
rou ps</w>
▁sign ific
▁P r
▁t aken</w>
spec ially</w>
fac tur
▁show s</w>
▁pres ident</w>
un▁ g</w>
eal th</w>
L ee</w>
▁tr ade</w>
. 5</w>
▁wr itten</w>
▁f ace</w>
▁eas y</w>
wh ich</w>
s p▁
R es
er al</w>
▁f ur
ow s</w>
▁fun ds</w>
ea k</w>
▁l anguage</w>
▁S ec
th an</w>
▁includ e</w>
▁c ities</w>
is sion</w>
c▁ h</w>
▁f ail
▁doc uments</w>
o▁ p
if ication</w>
▁dr aw
i f</w>
t e▁d</w>
re ad</w>
entr al</w>
▁l os
▁f is
t e▁r</w>
▁cons ult
Ordin an▁ce</w>
▁inter ested</w>
t echn
includ i▁ng</w>
▁s em
▁institu tion</w>
m os
f▁ or
un d▁er</w>
s a</w>
id ence</w>
▁oper ating</w>
▁for m</w>
ess or</w>
ov ▁er</w>
m or
c y</w>
h▁ ave</w>
a g</w>
▁en g
▁as k</w>
ic ▁al</w>
▁p ati
▁n ear</w>
▁buil t</w>
▁c irc
ell ent</w>
▁b or
▁r ice</w>
ye▁ ong
e p</w>
▁R ep
ar ding</w>
▁u su
pl es</w>
loc ▁al</w>
▁additi onal</w>
▁l aw</w>
▁cl as
og rap
ro ad</w>
m ental</w>
l o
il ies</w>
▁reg ion</w>
▁cos ts</w>
in cre
c ar
et ary</w>
anc ed</w>
▁s ent</w>
▁in come</w>
th y</w>
Pro vince</w>
▁m ove</w>
ti ci
im in
0 ▁
▁co operation</w>
▁ins ur
▁acc ident</w>
w▁ ith</w>
8 th</w>
▁ret urn</w>
ail able</w>
n▁ d</w>
erv ation</w>
eg al</w>
cl os
▁empl oyment</w>
▁c ause</w>
wh▁ o</w>
▁G roup</w>
▁G erm
tur al</w>
ob er</w>
he▁ ld</w>
ad ▁
▁r ole</w>
▁ha ving</w>
▁Wor ld</w>
▁M at
R ▁
▁man age</w>
um ▁
tif ul</w>
▁ex ten
p e▁r
ow ing</w>
i ety</w>
e qu
▁custom ers</w>
op s</w>
i▁ le</w>
▁lea ve</w>
G ye
w ith
▁A ll</w>
af f</w>
▁fil m</w>
o es</w>
▁appl ied</w>
ad v
▁confir med</w>
p▁ er
▁purch ase</w>
▁S chool</w>
▁develop ed</w>
at▁ ional</w>
hav ▁e</w>
▁m ut
▁m en</w>
▁incre asing</w>
▁hous ing</w>
j e▁ct</w>
▁d eb
ou t
iqu e</w>
▁e duc
i er</w>
u ted</w>
inten dent</w>
x ed</w>
pl ace</w>
quar ters</w>
T h
▁im medi
ec ting</w>
▁t ick
pr▁ o
e▁ s
d▁ uc
▁c all</w>
▁S erv
re▁ c
g ood</w>
▁ o</w>
ul ate</w>
▁par king</w>
▁d ev
u ment</w>
▁need ed</w>
▁e r
i k
▁surv ey</w>
▁pres ent</w>
ff ▁
eal ed</w>
▁dis ab
▁appoin ted</w>
l ast</w>
g en
▁sa w</w>
▁recor d</w>
▁adv ance</w>
wh e▁re</w>
w ell</w>
a▁ p
ab o▁ut</w>
evel op</w>
en ding</w>
▁sup pl
▁acc ount</w>
▁K RW</w>
y s
u k
ag n
ac y</w>
7 th</w>
▁sub par
▁res pec
▁intro duced</w>
▁R eg
▁ur ban</w>
r .</w>
ti▁ es</w>
▁stat us</w>
▁s ix</w>
Kor ean</w>
▁im p
▁concer t</w>
▁Ch airman</w>
▁ph one</w>
▁K ing</w>
▁Je ju</w>
fac il
▁sh ip
▁m om
▁fin al</w>
h o</w>
▁w anted</w>
l ed
ea th</w>
c oll
▁streng th
▁s ize</w>
udd h
for cement</w>
▁loo king</w>
▁open ed</w>
▁o ▁
us try</w>
om an</w>
ed ly</w>
▁s een</w>
▁tri p</w>
▁s ett
a im
&▁qu ot▁;</w>
&a▁po▁s ;t</w>
▁st ory</w>
j us
ick ly</w>
ati ves</w>
▁spec ial
▁plan ning</w>
▁opin ions</w>
▁man u
g ue</w>
ee k</w>
pl ac
▁natur al</w>
▁cre ated</w>
▁commissi oned</w>
s on
▁dis trict</w>
th rou▁gh</w>
▁charac ter
w a</w>
G ye▁ong
4 th</w>
▁grow ing</w>
▁atten ded</w>
▁s ports</w>
▁h on
▁ 00</w>
▁se veral</w>
▁detail s</w>
▁St ates</w>
id ential</w>
a▁ b
amp ;</w>
re v
▁sup ply</w>
▁prof essi
▁j obs</w>
▁ad ded</w>
ur i▁ng</w>
em ale</w>
e iv
&apo▁s ;s</w>
▁l ec
▁beg in
▁Intern ational</w>
ef ul</w>
▁stand ards</w>
▁Gang nam</w>
pos al</w>
ea ch</w>
e er</w>
▁sec tor</w>
▁R us
ci ence</w>
th em</w>
re h
▁sh are</w>
▁lea d</w>
▁diffic ul
i j
▁fam ous</w>
pro f
▁r ights</w>
6 th</w>
▁f elt</w>
in t
h ous
▁b ir
▁D uring</w>
tr a▁
n ext</w>
c▁ es</w>
▁manag er</w>
▁g ather
▁sum mer</w>
▁r un
z ▁ed</w>
tiv ely</w>
sup po▁rt</w>
em ocr
▁o thers</w>
▁l ost</w>
▁th ough</w>
▁oper ated</w>
ti▁ ve</w>
▁su gg
▁rec ru
pro c
n▁ ew</w>
▁t w
▁pre dic
▁g roups</w>
▁hosp ital</w>
▁r un</w>
i▁ n▁g</w>
e f</w>
▁J oseon</w>
▁Gang won</w>
con ven
▁ad ver
n a▁
k ay</w>
▁pl aces</w>
▁cl ose</w>
ver age</w>
re c▁
h el
ct ober</w>
▁p or
ati▁ ng</w>
l▁ ike</w>
d▁ ue</w>
▁en ter</w>
▁d evelop</w>
▁av ailable</w>
▁E uro
ec tive</w>
▁t akes</w>
▁insur ance</w>
▁curr ently</w>
n▁ ow</w>
ester day</w>
ann oun
an tly</w>
▁tr affic</w>
▁tom orrow</w>
▁exam ination</w>
ai▁ r
▁sim ilar</w>
▁g etting</w>
▁happ y</w>
ro om</w>
▁st ation</w>
▁re view</w>
▁phot o</w>
▁aud it</w>
th r▁
i ent</w>
der ed</w>
▁rec ent</w>
▁equip ment</w>
c s</w>
▁med ium</w>
▁en ergy</w>
▁J uly</w>
af ety</w>
ong s</w>
oy ed</w>
agrap hs</w>
g ed</w>
▁ac tive</w>
▁s old</w>
▁pos iti
▁A pril</w>
or ry</w>
e▁ m
en ded</w>
a▁n ce</w>
F ▁
C ▁h
&a▁pos; ▁d</w>
20 ▁
▁trans portation</w>
▁cont ent</w>
s ang
▁li br
ear ly</w>
c l▁
at s</w>
▁stud ent</w>
▁meth od</w>
▁entrus ted</w>
▁P ublic</w>
▁th ing</w>
▁tea ms</w>
▁do esn</w>
ept ember</w>
ell ing</w>
d et
▁restaur ant</w>
▁out side</w>
▁Kor eans</w>
i b▁
▁exc ellent</w>
▁continu ed</w>
s h</w>
▁cer tific
a j
▁t old</w>
▁eff ect</w>
▁cl ear</w>
j o▁
▁Pro v
s is</w>
ris is</w>
ar m</w>
▁underst and</w>
▁K ang</w>
▁d aily</w>
eg ▁
▁k in
olog ical</w>
o th▁er</w>
ement ary</w>
▁an im
▁al one</w>
ur ed</w>
u tiful</w>
tri▁ ct</w>
▁G e
c▁ l
o▁ re</w>
o▁ l
im um</w>
es ting</w>
ou ses</w>
▁Y oung</w>
▁super intendent</w>
▁prov isions</w>
in ing</w>
h▁ ad</w>
der ly</w>
1 st</w>
p ic
&ap▁os; ve</w>
&ap▁os; re</w>
▁super vis
▁comm un
fl ic
▁sp read</w>
▁J une</w>
▁B uddh
▁Ass embly</w>
ou ▁t</w>
g round</w>
compan i▁es</w>
b ro
an▁ t</w>
▁ter ms</w>
▁r ather</w>
▁qu ar
▁end eav
▁co oper
▁en ough</w>
sh all</w>
▁g overnor</w>
▁F und</w>
ot t
▁c andid
▁b ig
t▁ e</w>
▁F estival</w>
▁Ch eong
ud e</w>
▁proper ty</w>
▁establis hment</w>
s it
▁pas sed</w>
▁auth or
▁1 1
re a▁
ov ▁er
▁prev ious</w>
t▁ er
▁s even</w>
▁wat ch</w>
▁reg ular</w>
▁contro ver
▁Th ank</w>
j ong</w>
▁Th ese</w>
ow led
c▁ on
▁eas ily</w>
▁C l
c o</w>
▁us ers</w>
▁typ e</w>
▁join t</w>
▁immedi ately</w>
ent ers</w>
m an
cl us
ou▁ nd</w>
eti tion</w>
d it</w>
b ur
a ise</w>
k no▁
h es</w>
en tif
▁wh ▁
▁proc ed
ur is
e▁ se</w>
et ings</w>
ap p▁
ae k
▁boo ks</w>
im pl
d r▁
ap pl
&q▁u o▁t;</w>
▁reg ulations</w>
▁k ind</w>
▁& ap▁os
n or
▁dec re
v ol
o▁ w
o▁ ol</w>
▁need s</w>
▁b us
ug ust</w>
si ons</w>
▁Ass ociation</w>
▁& apos▁;s</w>
anc ▁e</w>
m es</w>
▁rais ed</w>
▁notif y</w>
▁manu factur
▁S ing
t▁ wo</w>
on▁ ly</w>
ch e▁on</w>
▁s ou
▁l ower</w>
▁chang es</w>
▁K ong</w>
▁&apos; ▁s</w>
& apos▁;s</w>
▁exper i
▁comp ared</w>
C i▁ty</w>
▁g ave</w>
▁enter pris
▁busin esses</w>
▁p us
▁e y
▁dram a</w>
▁cont ents</w>
e o▁
▁st aff</w>
▁per form</w>
on▁ g
m any</w>
au ght</w>
▁h all</w>
▁c am
tr a</w>
▁t as
▁perform ances</w>
▁endeav or</w>
▁O r
en d▁
e ight</w>
▁v ac
ar▁ ge</w>
Gye▁ong gi</w>
E ▁
▁dec ision</w>
on es
m ar
h ad</w>
iver si
▁Ch ris
n er
▁includ ed</w>
▁bel ieve</w>
▁Y eong
si▁ on</w>
j ust</w>
▁improv ement</w>
▁M anag
is tics</w>
a▁r k</w>
▁J ong</w>
ab ly</w>
▁wee k
▁on line</w>
▁implement ation</w>
sti m
▁pos ition</w>
▁gu ar
▁be h
T r
▁opport unity</w>
▁Ch o</w>
a▁ n▁d</w>
▁ret ur
▁b ad</w>
e▁ nd</w>
ad s</w>
▁i ▁s</w>
▁f inis
▁compl ex</w>
▁do ing</w>
es ▁s</w>
d ef
Provinc i▁al</w>
▁s ong</w>
▁pic ture</w>
▁h er
▁at t
▁V iet
▁l ist</w>
▁indus trial</w>
▁cour t</w>
▁M us
▁emerg ency</w>
▁d on
▁com b
pl ay
enc ed</w>
▁produc ed</w>
▁li f
▁larg est</w>
▁ t
st anding</w>
o ds</w>
a em
▁tal k</w>
▁& ▁
si f
r▁ es
d o▁ng</w>
▁poin ted</w>
▁el ig
▁Mat ters</w>
st▁ em</w>
and ed</w>
▁St ation</w>
op ping</w>
&ap▁os; ll</w>
▁l ight</w>
w ▁e</w>
0 th</w>
▁t arg
▁lo an</w>
▁ar ti
ur s</w>
▁t ow
▁re duce</w>
▁politi cal</w>
▁g oods</w>
▁coll ection</w>
▁bea utiful</w>
▁approv al</w>
iev ed</w>
▁h ot</w>
▁an sw
g ro
▁vehic le</w>
▁N am</w>
▁F rom</w>
ong er</w>
e a▁r
ann ed</w>
▁w aste</w>
▁H is</w>
ap pen
ph ere</w>
em b▁er</w>
S h
▁lear n</w>
▁h and</w>
▁go▁ ing</w>
f irst</w>
▁d ust</w>
▁N am
i▁ ll</w>
b all</w>
anu ary</w>
▁b ack
▁Prov ided</w>
wh ere</w>
v ari
ular ity</w>
d own</w>
▁sub mitted</w>
▁r ise</w>
▁or din
▁B e
▁1 3</w>
te▁r m</w>
e▁ t
an ▁s</w>
▁y outh</w>
▁A sian</w>
on ▁e</w>
▁th ere
▁P h
tr ation</w>
&ap▁os; ▁
▁O ctober</w>
&ap▁os ;s</w>
▁leg al</w>
▁dis aster</w>
it▁ ed</w>
▁qu ickly</w>
▁g ir
▁f all</w>
▁f av
▁ch arg
la▁ st</w>
as tic</w>
▁dram as</w>
▁dis p
▁com es</w>
▁trans fer</w>
if ic</w>
▁fu nd</w>
o .</w>
l y
ec h</w>
ar ded</w>
▁p oor</w>
▁car ried</w>
k n
ow on</w>
co▁ me</w>
▁un iversity</w>
▁d oll
m i▁
f e▁
a i▁n
▁w ar</w>
▁ins ide</w>
▁govern ments</w>
▁c old</w>
th e▁re</w>
ill i▁on</w>
▁usu ally</w>
t w
p u▁
dic tion</w>
d ays</w>
res sed</w>
in▁ to</w>
e et</w>
d i▁ng</w>
am ed</w>
▁su ffer
▁ag encies</w>
▁L ocal</w>
t▁ ic
&▁ ap▁os
▁T V</w>
▁l ack</w>
▁fam ilies</w>
▁ch urch</w>
▁M ost</w>
en sive</w>
▁m ess
▁hea d
▁B y</w>
t ak
iz ▁ed</w>
▁sm o
▁H an</w>
u▁ st</w>
g ency</w>
▁t ro
▁respon se</w>
us ing</w>
s om
d em
▁rece ip
▁individ ual</w>
▁M on
▁I sl
irec tor</w>
w it
i▁ ve</w>
▁separ ately</w>
▁4 0</w>
si z▁ed</w>
p eople</w>
c ap
▁f alling</w>
▁exp and</w>
▁agric ultural</w>
g▁ et</w>
c i▁
▁prin cip
▁cor rec
ma▁ de</w>
▁j udg
▁e stim
▁liv es</w>
▁h otel</w>
▁S eptember</w>
▁J i</w>
epar t
ag ▁e</w>
L▁ ee</w>
▁r en
▁gu id
pl ay</w>
a▁ le</w>
ed ▁
ch ar
▁vis itors</w>
▁scen e</w>
▁requ ired</w>
▁1 6</w>
oc ks</w>
▁I r
l ea
est ablis
▁a verage</w>
or ing</w>
o ot
eb ru
▁sched ule</w>
▁infl u
v y</w>
st ar
s k
p ite</w>
ip s</w>
e▁ en</w>
ab il
t▁ iv
th ly</w>
t al
fras tructure</w>
▁opin ion</w>
ear ing</w>
ar ies</w>
▁w oman</w>
ea ter</w>
be▁ ca▁
A d
li er</w>
ic i
h y</w>
▁m et</w>
▁issu ed</w>
v ice</w>
over ed</w>
e▁ ty</w>
com p▁
▁poin ts</w>
▁f emale</w>
▁W ave</w>
▁Serv ice</w>
▁y esterday</w>
ph as
▁hea t</w>
▁Gwang ju</w>
▁go al</w>
▁dis t
▁com ing</w>
▁Rec ently</w>
l ife</w>
▁comm er
wor k
um e</w>
iti▁ on</w>
govern me▁nt</w>
ea ce</w>
▁professi onal</w>
▁ey es</w>
▁comp et
▁Pol ice</w>
et c</w>
&ap▁os▁ ;
s uch</w>
eleb r
W ▁
▁u til
▁d uty</w>
u▁ se</w>
ild ings</w>
▁wh ole</w>
▁r ap
▁mom ent</w>
▁ ation</w>
und ai</w>
h eld</w>
ea ker</w>
ad ministr
Comm itt▁ee</w>
▁succ ess
▁comm on</w>
er n</w>
e ign
▁h ar
l der</w>
c▁ om
▁inst alled</w>
▁g ames</w>
g ar
▁rea d</w>
▁eff orts</w>
▁particip ants</w>
▁m et
▁elig ible</w>
▁Intern et</w>
d ep
Y ▁
▁vehic les</w>
m us
f f</w>
▁o▁ f</w>
▁gre en</w>
▁d one</w>
ic ally</w>
▁tem per
is ten
b us
▁high est</w>
▁Ch eon
an▁ g</w>
▁re vis
▁coun sel
▁T echn
sel ves</w>
▁k ey</w>
▁an ▁d</w>
w▁ ay</w>
p ri▁
▁person nel</w>
▁A ugust</w>
ul ed</w>
s ucc
i▁n ce</w>
eal s</w>
▁m ind</w>
ul a</w>
i res</w>
▁issu es</w>
▁inv ol
c▁ il</w>
as ting</w>
▁ind ic
▁A t
A n
i h
▁d ro
w o▁n</w>
e f▁
▁exam ple</w>
▁Se ong
r i</w>
ex p▁
co oper
▁par ts</w>
▁H ouse</w>
w▁h ich</w>
oun ▁
er▁ al</w>
b s</w>
as ty</w>
▁vic ti
▁stand ard</w>
▁play ed</w>
or▁ th</w>
▁orig inal</w>
▁mod el</w>
▁Dec ember</w>
Pro ▁
▁educ ational</w>
▁J anuary</w>
in▁ gs</w>
co▁ m
▁ques tions</w>
▁Sh in</w>
tu ally</w>
I t</w>
▁fur ther</w>
▁1 ,
▁con ver
▁ch o
▁R ules</w>
▁1 2
tr ad
▁volun te
▁p o
ti t
i▁ ed</w>
e ok</w>
▁o il</w>
▁M ore</w>
w ide</w>
▁wh i▁ch</w>
▁ind epend
on s
ess ed</w>
▁m other</w>
▁consum ers</w>
▁c risis</w>
▁1 4</w>
ri ve</w>
i en
e ering</w>
&▁ apo▁s
mos phere</w>
i▁ c</w>
e▁n ts</w>
ex pl
▁tr ust
▁tr ue</w>
e▁ v
O r
▁h appen
▁S m
ch ang
▁col or</w>
u ture</w>
pos ;</w>
▁follow s</w>
▁Ex c
▁19 9
d on▁g</w>
▁ h</w>
or d</w>
g a▁
e el</w>
▁sing le</w>
▁res ources</w>
▁rel ation
▁f ell</w>
▁ex erc
▁N ov
▁B l
▁sen ior</w>
▁lear ning</w>
▁cou ldn</w>
▁win ter</w>
o▁ se</w>
er ve</w>
▁reg ional</w>
▁in j
▁coun cil</w>
▁author ities</w>
re l▁
il m</w>
▁sen se</w>
▁T able</w>
t oo</w>
Provinc ▁e</w>
▁st op</w>
▁ac tual</w>
y un</w>
c os
▁rev ealed</w>
▁pers onal</w>
▁mat ch</w>
▁d ou
r up
ic ▁e</w>
▁pre vention</w>
▁dis app
▁comp ens
▁coll ege</w>
on str
f un
a▁y s</w>
li▁ ke</w>
▁m ight</w>
▁f re
▁br ing</w>
ult i</w>
ig r
at ch</w>
▁t aste</w>
▁hear t</w>
▁en sure</w>
ov e▁r
orpor ation</w>
ar tment</w>
▁d eath</w>
re as
pos sible</w>
od e</w>
d ro
▁y et</w>
▁ha ir</w>
u ter</w>
n e
it ure</w>
c al
▁re ven
it able</w>
bas ▁ed</w>
art ph
M anag
&ap▁os; v▁e</w>
▁v en
▁E m
▁C ultural</w>
▁Al so</w>
st ances</w>
▁prosec ution</w>
▁c entral</w>
ectron ics</w>
▁organiz ed</w>
▁ac qu
t▁ ly</w>
s ign
loc al</w>
u▁ s
over ▁n
J e
▁p .m.</w>
▁entr ance</w>
m▁ ay</w>
a▁r t</w>
▁h it</w>
em ented</w>
▁int egr
▁el derly</w>
s▁ he</w>
om in
l ong</w>
augh ter</w>
▁g ar
▁con flic
▁D es
ener al</w>
▁w eb
▁f a
▁en cour
▁consid ered</w>
▁bel ow</w>
▁Y i</w>
n um
▁n etw
▁loo ks</w>
p ay
ex ual</w>
end a</w>
▁publ ic
▁m inis
th ey</w>
ec t▁ed</w>
c a▁n</w>
&a▁pos; ▁m</w>
▁pos sibility</w>
▁inst all
uris diction</w>
▁s ays</w>
▁re por
▁el ection</w>
▁Manag ement</w>
▁M r.</w>
j eon</w>
C ent▁er</w>
▁follow ed</w>
▁Y ong
par ▁
oo d
ol o▁
s▁ oo</w>
su▁ p
s ome</w>
▁me etings</w>
▁certific ate</w>
▁Ind ones
com ▁
c r▁
▁wea ther</w>
▁1 3
ye ars</w>
qu ▁
on d
j i</w>
ful ly</w>
a▁n g
▁ch ild
o ch
ic ial</w>
▁res t</w>
▁atten d</w>
ti al</w>
▁s ee
▁Com p
t on</w>
ebru ary</w>
▁ques tion</w>
▁div ision</w>
l ow</w>
In d
▁var iety</w>
▁ill egal</w>
urr ently</w>
il ed</w>
a▁ g
▁receip t</w>
▁m er
▁lea ding</w>
▁c ur
our t</w>
,0 ▁00</w>
▁wh ite</w>
▁i ▁n</w>
▁m obile</w>
l▁ ud
i▁ ly</w>
is ted</w>
▁wr iting</w>
▁t ▁o</w>
▁in f
▁S pec
en viron
▁wor k
ul d</w>
a▁ tio▁n</w>
rou gh
if t</w>
▁sit es</w>
▁resol ution</w>
▁ar riv
us ▁ed</w>
ular ly</w>
es s▁
n ey</w>
c or
busin e▁ss</w>
▁administr ation</w>
▁$ $</w>
oll ow</w>
d evel
▁h ouses</w>
▁controver sy</w>
▁ab o▁ut</w>
▁S i</w>
a▁ ti▁on</w>
▁pop ularity</w>
▁h os
o e</w>
m i▁n
▁rea ding</w>
▁occ up
▁Y oon</w>
you▁ ng</w>
he▁ l
b and</w>
▁for ward</w>
▁distrib ution</w>
▁car s</w>
an ch</w>
▁sh or
▁G u
at e▁d</w>
an ch
▁occ urred</w>
▁Hy undai</w>
ye o</w>
tis ts</w>
ov ed</w>
eti mes</w>
O ▁
▁w al
▁cont act</w>
ev▁ el</w>
c k</w>
ar▁ y</w>
▁trust ee</w>
▁str ateg
▁particip ation</w>
▁inc urred</w>
▁c enters</w>
▁bu ildings</w>
▁1 8
clud ed</w>
a▁c k</w>
S u
▁subsid ize</w>
▁r ed</w>
▁gather ed</w>
▁ad vis
s en
h ol
. 2</w>
▁re duced</w>
▁it self</w>
tiv es</w>
sh ow
▁pati ents</w>
▁f requ
▁de pos
r ight</w>
a u</w>
▁enter ed</w>
▁stor es</w>
▁m en
▁aut om
re st
wh at</w>
dis c
ati vely</w>
▁s yst
▁A p
yn asty</w>
j o
f ood</w>
▁conc entr
▁A re</w>
m arket</w>
ab les</w>
▁rea sons</w>
▁per mission</w>
t ations</w>
s▁ uch</w>
ear▁ ch</w>
be▁ca▁ use</w>
▁ar res
u ge</w>
re ment</w>
▁s pen
▁h ands</w>
d▁ ing</w>
b re
▁vi ew</w>
▁p ot
▁Th ere
on al
dis ▁
▁wa it</w>
▁sus pen
▁m o
▁K yung</w>
on ly</w>
an▁ ge</w>
▁d own
p▁ ol
o▁ on</w>
M inis
▁w id
▁mark ets</w>
▁There fore</w>
▁Ta i
▁Hy un</w>
i▁ de</w>
g n
di ffic
&apos; ▁s</w>
▁m emor
▁l un
▁M ed
in st
es ▁t</w>
▁di ver
▁J in
u▁ p</w>
u t▁
ou r▁
i▁g n</w>
ch i</w>
N ation▁al</w>
▁w ays</w>
▁expec ts</w>
a▁ d
▁ev alu
▁ad d
▁Isl and</w>
qu al
h ere</w>
▁libr ary</w>
▁gre at
▁f ig
▁c ut</w>
oth es</w>
er i
eg u</w>
b us▁
Gye o▁ng
▁mov ement</w>
▁F oundation</w>
owled ge</w>
m uch</w>
j ob</w>
cont in
▁w on
▁C o
u▁ d
▁lea der</w>
▁expres sed</w>
▁d ance</w>
▁cap ital</w>
a o</w>
▁stre et</w>
▁delib er
▁ap artment</w>
▁ac tion</w>
vi ew
oo t</w>
oo king</w>
en▁ cy</w>
▁S ung</w>
▁M ountain</w>
iv ▁
▁regis tration</w>
▁n ear
▁m ul
▁imp act</w>
▁at mosphere</w>
tain ment</w>
▁mat ter</w>
▁deliver y</w>
p▁ ublic</w>
▁j urisdiction</w>
▁G re
u▁ t</w>
o h</w>
ev▁ en</w>
▁tour ists</w>
▁m etropolitan</w>
▁b ought</w>
▁Ch ung
ou▁ r
en tur
all yu</w>
▁J eong</w>
ustr al
▁wr ong</w>
▁pro g
▁go es</w>
▁f ather</w>
▁driv ing</w>
▁differ ence</w>
our th</w>
▁c aught</w>
▁budg etary</w>
▁br and</w>
▁aud ience</w>
▁ann ual</w>
ing ly</w>
con c
N or▁th</w>
▁n ation</w>
ver y
ess ing</w>
▁consult ation</w>
▁ac adem
t ee</w>
o ts</w>
m otion</w>
k en</w>
inves tig
&q▁u ot▁;</w>
▁s o
▁prot ection</w>
▁lim its</w>
▁exc ept</w>
▁environ mental</w>
▁ag enda</w>
▁P eople</w>
▁L ot
re▁ s
a▁ s
ar ea</w>
0 0
▁there of</w>
▁im m
▁adv ant
i o▁ns</w>
h▁ in</w>
▁b ank</w>
▁Wh y</w>
▁2 5</w>
t ained</w>
re▁ n
en ly</w>
▁s atis
▁prescri be</w>
▁pop ulation</w>
▁V ice</w>
▁O ther</w>
re m
h ea
f ro▁m</w>
p riv
▁tr end</w>
▁r aise</w>
▁im age</w>
▁1 8</w>
i▁ m
e▁ st
e▁r n</w>
en ti▁
c ▁e</w>
af t</w>
si▁ te</w>
eed ed</w>
ar r
▁par k</w>
wo▁r k</w>
t og
gr ad
f u▁
▁p i
li k
ell s</w>
ehol ds</w>
▁el ec
▁corpor ate</w>
wi▁ t▁h</w>
ag ric
▁star ting</w>
▁requ ested</w>
▁ne igh
▁&apo▁s ;s</w>
p oin
p as
a▁ f
▁every one</w>
▁ et</w>
t eam</w>
ex ic
ar ily</w>
▁dec l
ul ing</w>
p t</w>
oc i▁al</w>
g▁ h
. 3</w>
▁wor ked</w>
▁subsid ies</w>
▁neg oti
▁co ff
▁Germ any</w>
tiv eness</w>
S▁ e
▁s ea</w>
▁form ulate</w>
▁ch ief</w>
▁1 st</w>
▁m as
▁cre dit</w>
▁begin ning</w>
▁H all</w>
▁201 6</w>
manag eme▁nt</w>
air m▁an</w>
▁tri ed</w>
▁r e</w>
▁determ ine</w>
▁D emocr
l ev▁el</w>
inc l▁ud
P r▁
I ▁
▁h y
▁comp reh
▁J in</w>
▁J ang</w>
th eir</w>
oo k
▁un ique</w>
▁receiv ing</w>
▁Sup port</w>
s i</w>
it age</w>
g▁ i</w>
▁circ um
▁Ab out</w>
pro vinc
g ation</w>
▁sk ills</w>
▁sk in</w>
▁e specially</w>
▁Ad ministr
t op</w>
l ement</w>
duc ing</w>
. 1</w>
▁est ate</w>
in tro
ib r
Ko▁re an</w>
▁sh opping</w>
▁cer tain</w>
▁big gest</w>
el ed</w>
eh old</w>
ch i▁
Pro v▁
&▁ apos;s</w>
▁r ound</w>
▁l and
▁f un</w>
▁G r
w as
s ea
s al
l f</w>
h im</w>
em▁ ent</w>
ea▁ ch</w>
▁tea cher</w>
▁some one</w>
▁acc idents</w>
vari o▁us</w>
p▁ op</w>
al l▁
▁sh own</w>
▁mov ies</w>
▁loc ation</w>
▁exch ang
t oc
mor ▁e</w>
e▁ a</w>
el ds</w>
▁id entif
▁h or
▁1 5
di ff
▁vi ew
▁par ties</w>
▁g row</w>
▁cl ub</w>
▁Nov ember</w>
wor ld</w>
tr a
is l
i en▁ce</w>
h ▁e</w>
ec on
▁beh ind</w>
wh i▁le</w>
ten ance</w>
l ea▁
&▁ apos;
ye a▁r</w>
ou▁ th</w>
in ner</w>
fort able</w>
ain ts</w>
▁difficul ties</w>
▁d ream</w>
▁air port</w>
k now</w>
▁positi ve</w>
▁Su won</w>
ta▁ ke</w>
p ublic</w>
mon th</w>
dr aw
▁s ign</w>
▁s ession</w>
▁or dered</w>
▁m ach
▁ful ly</w>
▁enti re</w>
a x
▁s tructure</w>
▁c amp
▁F ebruary</w>
ear ance</w>
▁sim ple</w>
▁ph ys
▁b ar
▁A ir
y cle</w>
il▁ l
▁s ure</w>
▁f ile</w>
▁O h</w>
▁F ac
▁201 5</w>
vis ▁
sc a▁le</w>
s em
l obal</w>
iv ing</w>
&a▁pos▁ ;m</w>
▁recor ds</w>
▁e ight</w>
▁P a
▁C ourt</w>
▁A gric
ye▁ on</w>
it ation</w>
end▁ ly</w>
an y
2 nd</w>
▁dis ease</w>
▁b ott
▁b ase</w>
▁a head</w>
▁N ow</w>
▁L and</w>
et ed</w>
ch arg
a x</w>
▁st one</w>
▁El ectronics</w>
▁coll ected</w>
z en</w>
our ce</w>
a b</w>
P a▁rk</w>
▁farm ers</w>
▁C ulture</w>
▁6 0</w>
in stitu
ab or
▁intro duce</w>
▁fil ms</w>
▁D irector</w>
▁2 4</w>
ro▁ n
▁w age</w>
▁relation ship</w>
▁em phas
▁custom er</w>
▁commun ication</w>
▁ar ch
▁@ -▁@</w>
ul ated</w>
k y
em ple</w>
▁tr ying</w>
▁re duction</w>
▁impl emented</w>
▁C EO</w>
t▁ ime</w>
op er▁
m a▁ny</w>
at▁ er</w>
ar▁ ea</w>
ag ain</w>
▁s ale</w>
▁ris k</w>
▁Y ang</w>
ow ers</w>
1 5
▁particip ating</w>
▁p aper</w>
▁Se o</w>
▁C urrently</w>
▁B ank</w>
D ec
▁st ay</w>
▁app eared</w>
▁Tr ans
▁Dec ree</w>
sy st▁em</w>
▁vis iting</w>
▁tea chers</w>
▁regis tered</w>
▁in nov
▁high ly</w>
▁coun ty</w>
in s</w>
▁show ing</w>
▁sch ol
▁p oll
▁ch ance</w>
st and
ou gh
. 6</w>
▁s ound</w>
▁s n
s▁ ec
p▁ ar
c ally</w>
af e</w>
P ar
▁sub way</w>
▁O f</w>
w r
w o▁
el ong</w>
d uri▁ng</w>
▁tr ain</w>
▁t en
▁p ain</w>
▁Pro f
e▁ e</w>
b um</w>
at▁ es</w>
atten tion</w>
an e</w>
▁sc ope</w>
▁ow ner</w>
▁h our</w>
s us
g ing</w>
▁c elebr
▁bo ard</w>
fri end</w>
eti c</w>
et er
am o▁ng</w>
ag re
▁ins truc
▁Pr ime</w>
so▁ o</w>
s tr▁
l ec
con sid
an▁ ts</w>
▁separ ate</w>
▁proced ures</w>
▁mov ed</w>
▁cl aim
▁w it▁h</w>
▁doc ument</w>
▁C orporation</w>
▁A sia</w>
tern oon</w>
e▁n ce</w>
b er
aus ▁e</w>
20▁ 1
▁r e▁
▁m y
▁direc tion</w>
▁bur den</w>
▁v alu
▁tri al</w>
▁div ided</w>
▁c ul
t▁ ing</w>
ent▁ ly</w>
ab out</w>
▁hea vy</w>
▁analy sis</w>
▁S un
▁S ong</w>
u x
i▁ r
in▁ ed</w>
A gric
▁pri ze</w>
▁med ic
▁direc t</w>
▁counsel ing</w>
inc ▁e</w>
▁wat ching</w>
▁N or
▁C ould</w>
oo▁ d</w>
is h
a▁ se</w>
3 rd</w>
▁temper ature</w>
▁en h
▁Se ung</w>
▁M al
o ffici
hi▁ gh</w>
h ood</w>
b ack</w>
J ae</w>
▁spec ific</w>
▁nor thern</w>
▁benef its</w>
r▁ y</w>
k et</w>
an d▁
▁them selves</w>
▁enterpris es</w>
▁concer ns</w>
▁b ri
▁Americ an</w>
id ▁ed</w>
f a▁
empl oy
Ar tic▁
▁res ident</w>
▁every thing</w>
▁b it</w>
▁St ar
▁Fin ancial</w>
w▁ ant</w>
os ▁
is su
id ly</w>
etw e▁en</w>
er a</w>
▁w ish</w>
▁w in</w>
▁recomm end</w>
▁buil d</w>
ec k</w>
▁s t▁
▁c op
▁D on</w>
im self</w>
id ge</w>
e p▁
as n</w>
▁t our</w>
▁n ature</w>
▁l ow
▁hist or
▁b ill</w>
▁D epartment</w>
th i▁s</w>
pri ate</w>
j e</w>
he▁l p</w>
▁cl othes</w>
▁Cheon an</w>
yp toc
ul▁ ar</w>
tr▁ y</w>
s e▁r
m ut
b ir
▁p ost</w>
▁im pres
▁accoun ting</w>
▁Viet nam</w>
iversi ties</w>
ic ▁es</w>
enc ▁e</w>
A r▁
▁subpar agraphs</w>
▁reven ue</w>
▁real ity</w>
▁detail ed</w>
▁d en
unic ip
g e
S up
▁id ea</w>
▁O ur</w>
ul ting</w>
t our
r ais
pro jec
p o
ic on
h n</w>
Dis tri▁ct</w>
▁s orry</w>
▁St ud
▁D ae</w>
▁pres s</w>
▁o ffer
▁ex emp
▁cl ean
▁becom es</w>
▁ac ross</w>
▁1 7</w>
ti▁ ons</w>
sc ape</w>
s ing
s cri
qu are</w>
ea▁ n</w>
be i▁ng</w>
ar ing</w>
▁s ongs</w>
▁new ly</w>
▁f ollow</w>
▁M in</w>
t in▁g</w>
t ation</w>
im chi</w>
comp eti
▁wor th</w>
▁tr illion</w>
▁pro posal</w>
▁cer tif
▁bl ack</w>
rough out</w>
per c
oo▁ k</w>
o ke</w>
igh▁ t</w>
▁fav or
▁consid eration</w>
▁Ex per
ma▁ ke</w>
ins ula</w>
▁v ice</w>
▁accoun ts</w>
s ts</w>
f ace</w>
b ers</w>
at t▁
S ec
A▁ r
&apo▁s ;</w>
▁stud ying</w>
▁sel ect</w>
▁restaur ants</w>
▁op position</w>
▁meth ods</w>
▁inter view</w>
▁foc us</w>
▁av o
u es</w>
is ing</w>
cons truc
0 0,000</w>
▁sol ve</w>
▁a ▁
▁a ward</w>
u▁ m
ud ▁
s eong</w>
. 4</w>
▁w ants</w>
▁pl ac
▁for eign
▁R ule</w>
▁& a▁
th▁ em</w>
th ea
t i</w>
. 8</w>
▁n ation
▁indus tries</w>
▁effici ent</w>
▁clas ses</w>
▁L ast</w>
wh en</w>
ter y</w>
m al</w>
an▁ g
C ity</w>
▁sy mp
▁guar ant
os an</w>
in v
g▁ h</w>
ff airs</w>
ent ary</w>
In che▁on</w>
▁s am
▁mater ial</w>
▁manag ed</w>
▁lim ited</w>
▁Ac tor</w>
por ▁t</w>
pl ex</w>
▁fun c
▁coff ee</w>
▁ch all
in ary</w>
g re▁
anc y</w>
E duc
▁typ es</w>
▁Sp eaker</w>
▁G w
▁web site</w>
▁tur ned</w>
▁s ev
▁res tric
▁i r
▁d re
▁conven ience</w>
▁N owon</w>
▁Lot te</w>
▁H wang</w>
t oday</w>
k n▁ow</w>
fri end▁ly</w>
der gar
com m▁
M oon</w>
▁ur g
▁princip le</w>
▁comp ris
ver s</w>
p ow
gr a▁
▁them e</w>
▁dis mis
▁cr ime</w>
▁coll ect</w>
w ards</w>
Com m▁
▁near by</w>
▁h ur
▁M exic
▁Da egu</w>
us band</w>
ill a</w>
por ▁ts</w>
o in</w>
ivers ary</w>
g un</w>
▁w i▁ll</w>
▁sa fe</w>
▁res ervation</w>
▁pos ted</w>
b▁ e
b u</w>
▁lo ans</w>
▁hol iday</w>
▁cl ean</w>
▁any thing</w>
ri es</w>
pro je▁ct</w>
iti e▁s</w>
ic h
h ist
▁s elling</w>
▁respon sible</w>
▁for est</w>
ul l
er t</w>
b r▁
announ c▁ed</w>
▁A ustral
t ary</w>
o▁ nd</w>
memb e▁rs</w>
j▁ in</w>
ch ain</w>
4 0</w>
▁r ain</w>
▁qu al
▁lea ders</w>
u▁ ch</w>
op ped</w>
it or</w>
▁vac ation</w>
▁no tice</w>
▁f oun
uc k</w>
tu▁ r
s oo</w>
s et</w>
f▁ ul</w>
b etwe▁en</w>
▁wa iting</w>
▁v ir
▁character istics</w>
▁T emple</w>
▁In di
▁201 4</w>
ucl ear
en e
T V</w>
▁s on</w>
▁cre ation</w>
▁c row
▁ar tists</w>
um s</w>
▁strength en</w>
▁h arm
▁g round</w>
▁Y oo</w>
ustr ial</w>
id e▁nt</w>
co▁ mp
a ut
▁tax i</w>
▁inst ead</w>
▁Rus sia</w>
roun ds</w>
m en</w>
h ouse</w>
du▁ c
ac ks</w>
P ark</w>
J ung</w>
Ch ina</w>
▁sched uled</w>
▁mea l</w>
▁main ly</w>
ul t▁
in to</w>
an e▁se</w>
▁th re
▁th a▁t</w>
▁sh ou
▁laun ched</w>
▁it em</w>
▁e ss
▁charac ter</w>
wi▁ th
om ic</w>
olo▁ gy</w>
ol l▁
im es</w>
am p</w>
S e▁
Gyeo▁ng gi</w>
&a▁ pos;</w>
▁t it
▁p r▁
g over▁n
ef o▁re</w>
A m
▁t urn</w>
▁sm artph
▁ser ies</w>
▁sec tion</w>
▁h e▁
▁di ed</w>
▁complet e</w>
▁ar ticle</w>
usin ess</w>
g ener
end ation</w>
bu il
▁r ates</w>
▁Y ang
oun ds</w>
i▁c y</w>
is ter</w>
g le</w>
el f</w>
▁t e
▁sus pec
▁re ti
▁hous eholds</w>
▁dr ink</w>
re t</w>
onom y</w>
c ur
b▁ le</w>
; ▁t</w>
▁sec ure</w>
▁retur ned</w>
▁recomm ended</w>
▁al most</w>
u i</w>
n e</w>
ae k</w>
▁g as</w>
▁disab ilities</w>
▁con ference</w>
▁G or
si▁ ty</w>
i x
f t</w>
entur y</w>
. 7</w>
▁r uling</w>
▁h ear</w>
▁G eneral</w>
ri ous</w>
eb ook</w>
▁n ur
▁los s</w>
▁for ce</w>
▁exerc ise</w>
▁ab road</w>
▁Techn ology</w>
t ogether</w>
su p▁
s ity</w>
p ubl
i▁ ze</w>
evelop ment</w>
ain i▁ng</w>
▁sing er</w>
▁o lder</w>
y▁ ear</w>
w a▁
t ent</w>
ind us
an▁ y</w>
al ized</w>
▁tour ism</w>
▁p m</w>
▁bl ood</w>
▁a im
in c▁
ig ▁
ea ted</w>
d oor</w>
com ▁p
▁pres sure</w>
▁pain ting</w>
▁install ation</w>
▁St ate</w>
▁3 1</w>
sm a▁ll</w>
ick en</w>
f▁ rom</w>
for▁ m
e▁ ment</w>
av ▁
▁main tenance</w>
▁Democr atic</w>
▁D el
p▁ or
il es</w>
G wang
▁wh ose</w>
▁tem por
▁f alls</w>
▁dem onstr
▁clos ed</w>
▁ac t</w>
iz es</w>
igh tly</w>
ectr ic</w>
▁maj ority</w>
▁el ementary</w>
▁dis clos
▁2 nd</w>
un der</w>
sch o▁ol</w>
prov ▁
o o▁n</w>
igh ting</w>
b el
&apos; t</w>
▁t able</w>
▁sel ection</w>
▁s ent
▁rel atively</w>
▁hol ding</w>
▁hand le</w>
▁b al
▁Y e
▁En forcement</w>
t est</w>
W e</w>
▁sett lement</w>
▁s ell</w>
▁min imum</w>
▁compens ation</w>
en ch</w>
▁p ass</w>
▁draw ing</w>
▁circum stances</w>
ig ence</w>
enti oned</w>
▁tick et</w>
▁refl ect</w>
▁play ing</w>
▁inter pre
▁gen der</w>
▁for med</w>
sh▁ ip</w>
m▁ y</w>
es day</w>
eep ing</w>
4 ▁
▁tre es</w>
▁over all</w>
▁h op
▁adver tis
▁S on</w>
▁N ot</w>
bu ild
▁ser ious</w>
▁p ow
▁great ly</w>
▁bro ke</w>
s u</w>
e▁ m</w>
▁add ress</w>
▁A gency</w>
un ities</w>
fr▁ ee</w>
▁un iversities</w>
▁signific ant</w>
▁mess age</w>
▁c ro
▁P yeong
the▁ y</w>
ot or</w>
▁sur pris
▁re ports</w>
▁prot ect</w>
▁car ry</w>
▁appoin tment</w>
off ▁
occ er</w>
k▁ ing</w>
ha▁ ll</w>
e i▁
▁prac tice</w>
▁includ es</w>
sh o▁
rou ght</w>
b ea
1 00</w>
▁special ized</w>
▁m id
▁f os
▁H ealth</w>
▁D ae
ub e</w>
thr▁ ee</w>
m ade</w>
▁succ ess</w>
▁201 8</w>
th ere</w>
t ake</w>
sti tu▁
per s
k ey</w>
id s</w>
▁t ou
▁play er</w>
ill ing</w>
i p▁
di ffer
d iv
c e▁n
b i▁
▁pl at
▁m ak
▁lec ture</w>
▁201 2</w>
w on
u▁ m</w>
n eg
h ome</w>
ec▁ ted</w>
ar ious</w>
ai▁r s</w>
▁v ill
▁st yle</w>
▁perform ed</w>
▁compreh ensive</w>
▁comm unic
▁c ash</w>
f uc
cl u▁
▁st ep</w>
▁reg arding</w>
▁r an
▁no thing</w>
▁expec t</w>
▁doll ars</w>
▁d eal</w>
▁becom ing</w>
▁Un like</w>
▁D ue</w>
▁1 9</w>
u als</w>
▁t o
▁qu ite</w>
▁n ot
▁inc ident</w>
▁201 7</w>
ester n</w>
be▁ c▁
▁inves tors</w>
▁f ast</w>
▁ev er</w>
▁consid ering</w>
▁T ae</w>
▁P en
▁B u
y i▁ng</w>
ucl ear</w>
t▁ ic</w>
te▁ am</w>
tern al</w>
in ter</w>
eo▁ ple</w>
am ily</w>
S erv
▁t ex
▁proper ly</w>
s er▁
it ment</w>
5 ▁
▁mean ing
▁m ountain</w>
▁hous ehold</w>
▁head quarters</w>
▁hea ds</w>
▁f air</w>
▁d eg
▁Ch ung</w>
v e
of f</w>
i▁n a</w>
g l
▁th roughout</w>
▁th e▁re</w>
▁l onger</w>
▁2 00</w>
y ong
resid en▁ts</w>
o▁ u
a▁ d</w>
▁sh ▁
▁ab ility</w>
▁E ach</w>
v a▁
oc ked</w>
iti ons</w>
ar▁ d</w>
an ti
ag ers</w>
ab y</w>
▁r ental</w>
pro m
in▁ k</w>
e tion</w>
d ev
In tern
▁th er
▁sup porting</w>
▁sup ported</w>
▁sp ir
▁per f
▁continu es</w>
▁ann iversary</w>
▁I m
y er</w>
u▁ c
oy al</w>
ent▁ al</w>
ed s</w>
▁f illed</w>
▁f an</w>
▁b at
▁W omen</w>
▁1 6
me▁ ans</w>
eop l▁e</w>
develop me▁nt</w>
des ign
be▁c au▁se</w>
▁pass eng
▁ex port</w>
▁coun ties</w>
at trac
an sion</w>
ag s</w>
▁serv ed</w>
▁s exual</w>
▁heal thy</w>
▁cont ains</w>
▁O ffic
oo m</w>
i f▁
h os
h om
d o
▁prov iding</w>
▁pri or</w>
▁l iter
▁disc ount</w>
▁d ig
▁Comm ission</w>
▁2 1</w>
w ater</w>
u ce</w>
ri age</w>
m ake</w>
elf a▁re</w>
ea ses</w>
1 3
▁w ide</w>
▁ser ve</w>
▁recogn ized</w>
▁h uge</w>
tion ▁s</w>
d oc
a▁ ble</w>
▁fun ction</w>
▁cre ating</w>
▁cor respon
▁bea uty</w>
▁ac tor</w>
▁V illage</w>
pe▁ op
▁H allyu</w>
▁Br az
ow ed</w>
kno▁ w</w>
i▁ te</w>
i ences</w>
est ock</w>
e i</w>
a▁ in</w>
▁success ful</w>
▁con dition</w>
▁auth ority</w>
▁ar ts</w>
▁Spec ial</w>
tur ▁e</w>
m in</w>
l i▁ne</w>
in form
b eg
▁prom oting</w>
▁govern ed</w>
▁ar gu
ff i▁ce</w>
clud ing</w>
▁in conven
▁gen eration</w>
▁compris ed</w>
ou▁ se</w>
C O</w>
1 8
&ap▁os ;</w>
▁shar ing</w>
▁netw ork</w>
▁con trac
▁bas is</w>
▁allow ed</w>
▁R iver</w>
yptoc urr
sh ips</w>
rec eiv
iter ia</w>
h▁ ow</w>
▁w ife</w>
▁ro oms</w>
▁main tain</w>
▁l e
t al</w>
s▁ ee</w>
ou l▁d</w>
il l▁
f l▁
em en▁t</w>
▁pl anned</w>
▁n amed</w>
▁f res
icon duc
er ous</w>
ectron ic</w>
▁sp eed</w>
▁fail ed</w>
▁af ternoon</w>
o f▁f
char ac
c i▁ty</w>
ul▁ tural</w>
udg et</w>
st or
am a</w>
N S</w>
▁improv ed</w>
▁driv er</w>
▁cri tici
l eg
end ly</w>
al ization</w>
▁z one</w>
▁wr ite</w>
▁wh▁ ich</w>
▁manufactur ing</w>
▁h imself</w>
▁grad u
▁e ating</w>
▁ad op
▁ac tually</w>
▁ab ove</w>
ess ment</w>
Jap ane▁se</w>
1 2</w>
▁wee ks</w>
▁viol ence</w>
▁sp ring</w>
▁h usband</w>
▁do or</w>
▁b ag</w>
▁Res earch</w>
ati cally</w>
▁prov ides</w>
▁p un
▁l og
▁in form
▁candid ates</w>
▁Euro pe</w>
t om
l▁ th</w>
direc t▁or</w>
d e▁r</w>
ad ing</w>
▁wor d</w>
▁re plac
▁prom oted</w>
▁j u
▁int ell
▁ear lier</w>
ov ▁
m od
m ee
d en
g ery</w>
ex pen
▁v oice</w>
▁tw ice</w>
▁rev ital
▁f oods</w>
▁estim ated</w>
▁deliver ed</w>
ye o▁n</w>
re me</w>
re au</w>
ou▁ l</w>
▁un it</w>
▁targ et</w>
▁rel ease</w>
▁law mak
▁consum er</w>
t▁h eir</w>
s oci▁al</w>
re ci
n on</w>
l et
h a</w>
▁kn owledge</w>
▁S ang</w>
s ame</w>
n ec
it▁ ies</w>
if y</w>
eb all</w>
▁corpor ation</w>
▁ar r
▁W elfare</w>
▁Tai wan</w>
▁O kay</w>
▁H igh</w>
ul ner
udd enly</w>
s in▁ce</w>
con duc
c ity</w>
O S
C enter</w>
s truc
l im
ip p
h ea▁
ci ti
▁s cience</w>
▁prepar ing</w>
▁entr ust</w>
▁cl im
y ers</w>
ul ly</w>
tro l</w>
s ystem</w>
pl a▁ce</w>
l a▁r
iti gation</w>
ain▁ st</w>
P▁ op</w>
Coun c▁il</w>
▁sur roun
▁rem aining</w>
▁phys ical</w>
▁m entioned</w>
▁b anks</w>
▁aff ili
▁ ment</w>
ter ing</w>
ou d</w>
▁in ter</w>
u ti▁on</w>
pro bl
off i▁ce</w>
l aw
d ance</w>
T▁ he</w>
▁un f
▁lim it</w>
▁k ept</w>
▁hear ing</w>
▁foreign ers</w>
▁f ol
▁Indones ia</w>
▁201 3</w>
us tice</w>
s eo</w>
. 9</w>
▁w alk</w>
▁th inking</w>
▁p etition</w>
▁acc ess</w>
▁Prof essor</w>
▁A ffairs</w>
ye a▁rs</w>
ut or</w>
ta ek</w>
r▁ eal
r o</w>
f uture</w>
ent ation</w>
ec o▁n
T S</w>
K▁or ea</w>
▁w ave</w>
▁in iti
▁fea tures</w>
▁C an
per son</w>
o ad</w>
ex am
el▁ y</w>
F or
1 5</w>
&a▁po▁s ;m</w>
▁cont est</w>
▁co ach</w>
u▁ al</w>
uc h
sec o▁nd</w>
i k</w>
c as
▁m ean</w>
▁charac ters</w>
▁ l
▁l at
z be
um an</w>
ter n</w>
i▁ f</w>
e▁n s</w>
eg et
ash ion</w>
9 th</w>
▁phot os</w>
▁1 4
u g</w>
tim ▁e</w>
re▁ d</w>
ov▁er n
af e▁ty</w>
▁ris ing</w>
▁f ish</w>
j o</w>
ci pl
& apos▁;</w>
▁rap idly</w>
▁dep ending</w>
▁T ur
▁E ast</w>
g▁h t</w>
ent e▁r</w>
Un iver
▁run ning</w>
▁pre m
▁pic tures</w>
▁medic ine</w>
wh ile</w>
ten tion</w>
o▁ un
me a▁ns</w>
er ce</w>
▁trans ac
▁ob tain</w>
▁my self</w>
▁commer cial</w>
▁C up</w>
x t</w>
we▁ ll</w>
u ed</w>
r▁ i</w>
r▁ ec
mo ti▁on</w>
e▁n d
ead quarters</w>
all ey</w>
Manag eme▁nt</w>
Kore▁ a</w>
&ap▁os;▁ ll</w>
▁mean ing</w>
▁En viron
s ang</w>
pro vince</w>
ic ated</w>
f in▁
ew ork</w>
ent ing</w>
▁t ree</w>
▁reg ions</w>
▁pres ented</w>
▁farm ing</w>
▁exp anded</w>
▁M arket</w>
sch ool</w>
ili ar</w>
e up</w>
cal l▁ed</w>
au th
an a</w>
S am
&ap▁os▁; ll</w>
▁signific antly</w>
▁pro posed</w>
▁f ourth</w>
▁eff ects</w>
▁answ er</w>
▁ac tors</w>
tic ism</w>
t em
educ ati▁on</w>
▁w ind</w>
▁entrus tment</w>
si▁ de</w>
on ds</w>
l▁ es</w>
expec t▁ed</w>
▁t en</w>
▁all ow</w>
▁I s
▁Chris ti
▁19 8
▁st anding</w>
▁l ic
▁j ud
▁eff ective</w>
▁charg es</w>
▁Th rough</w>
th e▁r</w>
over y</w>
ir ing</w>
P ar▁
▁stat ement</w>
▁s of
▁rel ations</w>
▁expen d
▁disab led</w>
▁cr iteria</w>
un i▁ty</w>
m▁ in</w>
i▁ p
▁sh ape</w>
▁fr u
▁fi elds</w>
▁f oundation</w>
▁dam aged</w>
▁d eep</w>
▁R e
▁3 rd</w>
es ter</w>
ag ing</w>
▁publ ished</w>
▁predic ted</w>
▁cooper ate</w>
▁W on</w>
▁Q u
▁Pro motion</w>
▁Mal ay
▁A f
ing u
an o</w>
▁m ulti</w>
▁ex ports</w>
rou▁ nd</w>
pl om
n ▁ed</w>
l ight</w>
ch ild
Govern ▁or</w>
▁wor ried</w>
▁liv ed</w>
▁Y ork</w>
▁L ea
wh▁ ich</w>
o ffice</w>
go▁ od</w>
g row
ast es</w>
▁victi ms</w>
▁l etter</w>
▁expen sive</w>
▁B o
m on▁
k ▁ed</w>
f▁ o▁r</w>
d om</w>
coun ▁
ad a</w>
1 8</w>
▁j oin</w>
▁design ation</w>
our n
m ation</w>
ch airm▁an</w>
G overnment</w>
B C</w>
▁tick ets</w>
▁sea ts</w>
▁pl ant</w>
▁adv anced</w>
w s</w>
um n</w>
d riv
▁proc essing</w>
▁mod ern</w>
▁design ed</w>
▁bus y</w>
▁S afety</w>
▁D evelopment</w>
provinc i▁al</w>
j eong</w>
airper s▁on</w>
▁s ▁
▁rea ched</w>
▁l in
▁bre ak</w>
▁7 0</w>
o▁ m</w>
m ain
cons um
cl a▁
bec au▁se</w>
D o</w>
▁lear ned</w>
▁kin ds</w>
▁f ar
▁exp ansion</w>
▁d aughter</w>
▁bl ock
▁Ind ustrial</w>
▁E specially</w>
w ise</w>
is hing</w>
▁k illed</w>
▁giv ing</w>
▁fac tory</w>
▁comp uter</w>
▁L G</w>
re present
pl▁ an</w>
it▁ tee</w>
h▁ eld</w>
ay ▁or</w>
J ap▁
▁s anc
▁orig in
▁em p
u tions</w>
t ea
a▁ fter</w>
agn os
▁oper ator</w>
▁mov ing</w>
▁loo ked</w>
y cl
oh n</w>
memb ers</w>
li am
am b
6 ▁
▁tow ard</w>
▁respon sibility</w>
▁r ob
▁m ist
▁def ense</w>
▁a .m.</w>
▁8 0</w>
t me▁nt</w>
r▁ ea
ro r</w>
po▁ l
or i</w>
onal d</w>
i▁n t</w>
is es</w>
econ om▁
d▁ id</w>
ad ium</w>
W ▁e</w>
1 9</w>
▁se emed</w>
▁recor ded</w>
▁join ed</w>
▁at tac
▁& q▁u
us h</w>
olog ies</w>
comm ittee</w>
c ultur▁al</w>
anc ing</w>
U .▁
▁r ati
▁mon thly</w>
▁foc used</w>
▁ach iev
▁Y outh</w>
th qu
in spec
a ult</w>
▁ven ue</w>
▁ref und</w>
▁del ay</w>
m en▁ts</w>
h ear
aem un</w>
▁week end</w>
▁cho ose</w>
▁Sing er</w>
▁2 2</w>
▁&▁ amp;</w>
our ism</w>
in tern
▁kin dergar
▁del ic
ith er</w>
h▁ o</w>
e▁ y</w>
e o▁n</w>
ap pro
▁n uclear</w>
▁del eg
▁D id</w>
▁Con s
y s</w>
us es</w>
unicip al</w>
ta▁ in</w>
pro mo▁
o▁n y</w>
or ies</w>
k y</w>
▁w ind
▁sol di
▁invol ved</w>
▁acc ep
▁J ust</w>
z ing</w>
w▁ or
wh▁ at</w>
c ol
app oin
I n</w>
▁gir l</w>
mark ▁et</w>
m a▁r
i▁ an</w>
it ec
is on</w>
f are</w>
e▁ as
e th▁er</w>
comp any</w>
c ent▁er</w>
b est</w>
a▁ e</w>
▁som etimes</w>
▁rep air</w>
▁el ectronic</w>
▁Tr ade</w>
s ee</w>
oti onal</w>
en g</w>
▁re port
▁r ad
▁ex am</w>
▁e ye</w>
▁conflic t</w>
▁Trans port</w>
w eek</w>
tur ed</w>
pr ac
is tic</w>
imin ary</w>
fo▁r m</w>
ell ow</w>
con cer
a▁ me</w>
▁design ate</w>
▁Y ear</w>
▁J es
ut ing</w>
spec i▁al</w>
is i▁on</w>
a ug
a im</w>
▁war m</w>
▁shar ed</w>
▁sh r
▁prog ress</w>
▁opport unities</w>
▁2 3</w>
i▁s m</w>
im prov
form▁ er</w>
for c
e▁ ar</w>
ex pres
en i▁ng</w>
am ▁e</w>
▁In st
▁Buddh ist</w>
▁Administr ation</w>
r en
pl an</w>
p ean</w>
m ▁e</w>
l in
issi on
en▁ ter</w>
ac king</w>
▁sp eak</w>
▁res ear
▁pre l
▁meaning ful</w>
▁g ol
▁consum ption</w>
sy ch
onom ous</w>
m a</w>
▁wr it
▁ch airman</w>
▁bo x</w>
▁activ ity</w>
▁D ynasty</w>
mo▁ st</w>
id o</w>
H y
▁se em</w>
▁ob jec
▁ch ea
t le</w>
r am</w>
ion ▁s</w>
&▁ apos▁;</w>
▁up on</w>
▁ordin ary</w>
▁improv ing</w>
▁broadc ast</w>
ti e▁s</w>
n▁ am</w>
ne▁ xt</w>
i▁ or</w>
U ▁
P▁ ro
▁str ugg
▁sh ip</w>
▁fis hing</w>
▁d inner</w>
▁agre ed</w>
y oung</w>
serv i▁ce</w>
i▁ ties</w>
▁ha ven</w>
tici p▁
oy ang</w>
ly mp
i▁ m</w>
h i▁s</w>
▁t op
▁stor ies</w>
▁respec t</w>
▁prof it</w>
▁p eace</w>
▁employe e</w>
▁compl etion</w>
pre v
hel p</w>
ea▁ r</w>
M ar
▁pro duce</w>
▁hos ted</w>
▁dis pl
▁advant age</w>
▁B aek
res ent
p▁ ed</w>
m illi▁on</w>
l if
enter pris
ay ▁s</w>
ati▁ onal</w>
ad d
U.▁ S.</w>
▁rais ing</w>
▁ob serv
▁l itigation</w>
▁happen ed</w>
▁guid ance</w>
▁E conom
▁Des pite</w>
c ase</w>
a ign</w>
1 1</w>
▁st ressed</w>
▁report edly</w>
▁rel ig
▁occ urs</w>
▁inter esting</w>
▁fi xed</w>
▁do g</w>
▁dec or
▁cr yptocurr
▁Ph il
▁P al
ter mea
re al</w>
ch ange</w>
c a▁re</w>
b▁ ec
be▁c ause</w>
a i▁n</w>
6 0</w>
▁w earing</w>
▁tax es</w>
▁sl eep</w>
▁s occer</w>
▁g ap</w>
▁er a</w>
▁dec line</w>
s▁ p
med ium</w>
h ol</w>
en ge</w>
com pl▁
art ments</w>
▁th eater</w>
▁sign ed</w>
▁m os
▁el se</w>
▁com posed</w>
▁broadc asting</w>
▁ab s
▁W a</w>
▁Sup reme</w>
vi ews</w>
r▁ en</w>
o▁ ld</w>
num b▁er</w>
i▁ ci
ign ed</w>
con f
be e▁n</w>
▁sev ere</w>
▁lun ch</w>
▁l isten
▁finis hed</w>
▁bre ak
ur o</w>
mee ti▁ng</w>
it▁ s</w>
e▁ ss
D a
▁subpar agraph</w>
▁spen d</w>
▁lo ts</w>
▁c entury</w>
▁b rought</w>
▁Ch ang
t ec
s ti▁
r▁ e
ind ustry</w>
B S</w>
& amp;</w>
▁w eight</w>
▁n ine</w>
▁mer ch
▁appro priate</w>
▁Ar t</w>
p▁ eople</w>
ist ance</w>
▁trans l
▁scre ening</w>
▁quar ter</w>
▁m oun
▁influ ence</w>
▁gr and
▁fil ed</w>
▁fe eling</w>
▁chang ing</w>
w ou▁ld</w>
t own</w>
p on</w>
n▁ eed</w>
in d▁
al ▁s</w>
▁s il
▁mus eum</w>
▁ex ec
v ic
u▁l t</w>
s▁ an</w>
prov in▁ce</w>
i re
ey s</w>
a h
▁res erv
▁occ ur</w>
▁ex ternal</w>
▁compet ent</w>
▁arriv ed</w>
▁Gor yeo</w>
▁4 th</w>
▁20 th</w>
▁1 7
▁&qu ▁ot▁;</w>
sp e▁
l ines</w>
it or
ist en</w>
i xed</w>
e▁ ts</w>
e▁ ms</w>
e▁ ar
eed s</w>
co▁ un
1 3</w>
1 0
▁st ocks</w>
▁sp ent</w>
▁incre ases</w>
▁g rounds</w>
▁enter tainment</w>
▁depos it</w>
▁coll ap
▁ch icken</w>
▁c o</w>
th us
o▁ w</w>
i ation</w>
h▁ ead</w>
ev ent</w>
d am
D ong</w>
▁T oday</w>
▁Sh in
o▁ me</w>
con diti
comp anies</w>
▁enter ing</w>
▁E ar
ther wise</w>
t o
en om
ed ding</w>
d ue</w>
b l▁
a j▁
F r
▁suffer ing</w>
▁n ice</w>
ov ement</w>
oun▁ g</w>
or ▁ed</w>
iv es</w>
hy ▁un</w>
▁volunte er</w>
▁sea t</w>
▁exp anding</w>
▁b all</w>
▁Sm all</w>
▁An y</w>
ver ▁
th en</w>
t ings</w>
s ation</w>
pos es</w>
i e▁
gre di
d a▁y</w>
20 0
▁w ▁
▁sub scri
▁ro ads</w>
▁prac tic
▁p l▁
▁ow ners</w>
▁mark eting</w>
▁e p
▁app earance</w>
▁Ir an</w>
y ond</w>
r▁ ee</w>
pre par
is ed</w>
b ing</w>
U .S.</w>
▁T wo</w>
▁Jes us</w>
b o</w>
atur day</w>
ati z
D ong
▁repor ter</w>
▁independ ence</w>
▁f oot
▁For eign</w>
t oms</w>
t ains</w>
re es</w>
ou ▁s</w>
it▁ ion</w>
i on▁al</w>
ffici ent</w>
as ts</w>
▁tour ist</w>
▁r i</w>
▁fl ight</w>
▁ex clus
▁cal cul
s▁ aid</w>
sec ▁
p ower</w>
o▁ k</w>
mak i▁ng</w>
f ied</w>
2 5</w>
▁o kay</w>
▁complet ely</w>
▁bel ieved</w>
▁W ould</w>
▁On ly</w>
ut ting</w>
un ately</w>
s▁ u
st u▁d
ch arge</w>
▁win ning</w>
▁wat ched</w>
▁w ear</w>
▁s uddenly</w>
▁pre fer
▁g old</w>
▁expend iture</w>
▁car eer</w>
▁Con sid
▁B usiness</w>
t able</w>
i▁n k</w>
duc t</w>
▁in gredi
▁gu ide</w>
▁en ded</w>
▁el ected</w>
▁bor n</w>
▁at tract</w>
▁applic ant</w>
ou T
i▁ l</w>
incre as
il ian</w>
fo▁ od</w>
ch ar▁ge</w>
c el
at▁ ic</w>
ap s</w>
ad ed</w>
G un</w>
▁y oun
▁plat form</w>
▁effici ently</w>
▁3 00</w>
sh ar
p▁ er</w>
or d▁er</w>
m ul
igh t
f arm
▁exchang es</w>
▁chec ked</w>
▁analy zed</w>
▁W ar</w>
▁D ep
▁D ay</w>
qual i▁ty</w>
pre s▁
i▁ st</w>
G e
Ass oci
▁underst anding</w>
▁tal king</w>
▁mean time</w>
▁laun ch</w>
▁el ectric</w>
▁M ong
▁At tention</w>
su▁ ng</w>
resid e▁nt</w>
o▁ ff</w>
ib eration</w>
h ow</w>
g overnment</w>
en ever</w>
be▁c aus▁e</w>
I n▁
▁sy mb
▁prel iminary</w>
▁back ground</w>
y▁ le</w>
u tr
ti▁ n
str eng
oo ks</w>
g ▁un</w>
f ree</w>
e▁ l</w>
e ech</w>
▁st able</w>
▁par t
▁m id</w>
▁intro duction</w>
▁fin ally</w>
s c▁
offici a▁ls</w>
av es</w>
P l
▁wh ic▁h</w>
▁un able</w>
▁stat utes</w>
▁histor ical</w>
▁dr inking</w>
▁G im
▁Agric ultural</w>
y ph
l et</w>
est ab
c re▁
ac ity</w>
Ko▁re a</w>
▁regis ter</w>
▁re pres
▁pi ec
▁del ayed</w>
▁cl ass
▁A hn</w>
s▁ et</w>
m▁ it</w>
A▁ ct</w>
▁rem ains</w>
▁recru itment</w>
▁rea ch</w>
▁prepar ation</w>
▁im possible</w>
▁ev idence</w>
▁ear n
▁develop ing</w>
▁conn ection</w>
▁block chain</w>
▁al bum</w>
▁S om
▁Rep ublic</w>
th▁ rough</w>
sh ou▁ld</w>
follow ing</w>
fam i▁ly</w>
econom▁ ic</w>
av il
and is</w>
▁sus pic
▁scre en</w>
▁res tor
▁d ang
▁ en</w>
va▁ rious</w>
offic i▁al</w>
G▁ yeonggi</w>
▁r ange</w>
▁p re</w>
▁intern al</w>
▁cl early</w>
▁ch ann
▁ad mission</w>
▁Euro pean</w>
▁Ac tress</w>
r on
me an▁s</w>
ff er</w>
am ic</w>
▁Austral ia</w>
ye t</w>
w▁h ic▁h</w>
ti▁ v
o▁ wn</w>
f ea
Ch eong
7 ▁
2 2</w>
▁m ale</w>
▁concer n</w>
▁H eadquarters</w>
▁Consid ering</w>
▁A ir</w>
w▁ oo</w>
iti▁ ng</w>
i ans</w>
b ody</w>
a h</w>
Artic▁ le</w>
▁star s</w>
▁direc tors</w>
▁avo id</w>
▁In ves
produc ▁ts</w>
m emb▁er</w>
iv al</w>
e▁ as</w>
c▁ t</w>
C e▁n
▁s earch</w>
▁requ ire</w>
▁p ack
▁leg isl
▁lea ving</w>
▁l isten</w>
▁g ift</w>
▁f ro▁m</w>
▁J eon
▁5 00</w>
v id
u d</w>
s o▁n</w>
ri▁ ed</w>
r ying</w>
or der</w>
g ame</w>
em erg
bl ic</w>
Ch ung
9 ▁
▁rem ember</w>
▁rati o</w>
▁neigh bor
▁foc using</w>
▁any one</w>
ful l</w>
facil iti▁es</w>
enti▁ al</w>
eal ing</w>
2 4</w>
▁sum mit</w>
▁suffer ed</w>
▁r ural</w>
▁g ets</w>
▁candid ate</w>
▁a th
▁U .
▁Fac ebook</w>
t▁ il</w>
s im
j▁ ob</w>
g ot</w>
ati v
ati s</w>
an ning</w>
▁res c
▁em ail</w>
▁clas sif
▁br anch</w>
▁app ear</w>
▁Th anks</w>
▁L abor</w>
▁Fr ance</w>
▁For mer</w>
w▁ an</w>
sp▁ ec
r at
l i▁ng</w>
il ing</w>
f▁ irst</w>
as ters</w>
▁vol ume</w>
▁fl owers</w>
▁expl ain</w>
▁anim als</w>
▁Exper ts</w>
▁Americ a</w>
ur ities</w>
uc ▁h</w>
thus i
sur ▁es</w>
stud en▁ts</w>
og s</w>
i ors</w>
er ry</w>
e o▁ng</w>
b it</w>
ap ore</w>
▁sur gery</w>
▁streng th</w>
▁m aster</w>
▁exc eed</w>
▁bro ther</w>
▁bir th</w>
▁bel iev
▁an ti</w>
▁Exc ept</w>
t ea▁
s▁ tr
som e▁
p▁ le</w>
bus▁ iness</w>
att le</w>
at tac
as ▁t</w>
▁wea k</w>
▁comp ly</w>
▁N o.</w>
▁2 7</w>
us ion</w>
s y▁
n ation▁al</w>
l aw</w>
ic ul
eed ing</w>
bo ard</w>
a▁f t▁er</w>
Gyeong g▁i</w>
▁w all</w>
▁subsid y</w>
▁ren ew
▁dou ble</w>
▁con st
▁c at
▁R ev
▁K i</w>
su per
on ial</w>
in f
ev e▁nt</w>
ep h
d ec▁
c orpor
ain t</w>
, 5
▁urg ent</w>
▁un its</w>
▁tre as
▁sm art</w>
▁neg ative</w>
▁men u</w>
▁liv estock</w>
▁ad jus
us i▁ng</w>
per s▁on</w>
k in▁g</w>
h ae</w>
g es</w>
com ing</w>
as ion</w>
O ffi▁ce</w>
▁th or
▁m ag
▁inst all</w>
▁de ems</w>
▁ass essment</w>
▁Dis trict</w>
▁2 6</w>
ou▁n t</w>
ol ution</w>
it ch
fi▁ r
ex hib
ang ▁
P ol
N am
B r
▁r it
▁gr ant</w>
▁dis eases</w>
▁competi tiveness</w>
▁announ cement</w>
▁S ure</w>
▁G ir
▁D o
ur s
per for▁m
os s</w>
coun try</w>
a▁ ted</w>
▁st opped</w>
▁st and</w>
▁n ames</w>
▁met ers</w>
▁Th ose</w>
um b
tur ing</w>
th▁ en</w>
th em
s▁ ha▁ll</w>
oo gle</w>
it ted</w>
id ays</w>
em ory</w>
aw ay</w>
ation ▁s</w>
ard less</w>
ag ▁ed</w>
▁re ward</w>
▁all eg
▁K ak
▁Je oll
▁E very
▁5 th</w>
g en</w>
con t▁
S t▁
▁off er</w>
▁cons truc
▁concer ned</w>
▁ch oice</w>
▁b aby</w>
▁ach ieve</w>
▁S ong
▁F ed
▁7 th</w>
el ines</w>
ch eong
an▁ d
S▁e oul</w>
▁sh op</w>
▁func tions</w>
▁Un der</w>
y m
un k</w>
ex es</w>
comm od
▁r ent</w>
▁p rec
▁grad ually</w>
▁201 1</w>
▁ ic</w>
l ow
ist an</w>
en▁ se</w>
ay er</w>
N ew</w>
▁o therwise</w>
▁conduc ting</w>
▁S un</w>
▁Gyeong sang
res idents</w>
priv a▁te</w>
osp ital</w>
m a▁n
h ead
ent ually</w>
d i▁s
ail and</w>
a ur
a f▁
M in▁
▁phot ograp
▁mea t</w>
▁ma x
▁integr ated</w>
▁experi enced</w>
▁en forcement</w>
▁em b
▁di agnos
▁c over</w>
▁arres ted</w>
▁ap artments</w>
▁H u
ro te</w>
re pres
pr▁ ov
it▁ al</w>
in co▁me</w>
gr am</w>
f e
P h
Ch i▁na</w>
▁tr ust</w>
▁gr ade</w>
▁fir s▁t</w>
▁ex tre
▁Or ganiz
▁Ar t▁ic
v ill
ti cles</w>
og y</w>
es▁ s
el ess</w>
ea▁ se</w>
▁qu anti
▁al tern
▁Su per
▁Mexic o</w>
▁In frastructure</w>
▁D onald</w>
▁201 0</w>
u▁ te</w>
ro▁ om</w>
n o
li▁ fe</w>
▁out standing</w>
▁li qu
▁g ather</w>
▁expec tations</w>
▁cryptocurr ency</w>
sti c</w>
oo▁ l</w>
n▁ ing</w>
in ks</w>
form s</w>
b ook</w>
ar ou▁nd</w>
0▁ 0</w>
▁w el
▁tempor ary</w>
▁sign s</w>
▁offic es</w>
▁cl er
▁be yond</w>
▁P ri
u al
r▁ un</w>
re por
op h
n y</w>
eco▁n omic</w>
G en
B us▁
▁st ep
▁sanc tions</w>
▁proc eed</w>
▁is n</w>
▁app reci
▁Th ree</w>
▁10 th</w>
ul atory</w>
p y</w>
p op</w>
n ame</w>
l san</w>
c urr
▁strateg y</w>
▁new sp
▁enh ance</w>
▁comm emor
▁Y u</w>
▁E very</w>
t aining</w>
enom en
aj or</w>
▁wal king</w>
▁soldi ers</w>
▁requ ires</w>
▁neg l
▁ass ets</w>
▁Y ong</w>
▁Mus eum</w>
▁H ee</w>
▁Germ an</w>
▁Con fuc
▁C re
▁1 ,000</w>
m ay</w>
i▁ um</w>
go ing</w>
ep tion</w>
ab ilities</w>
▁sugg ested</w>
▁receiv es</w>
▁r ail
▁in frastructure</w>
▁de ep
▁ad d</w>
▁M or
▁Ch eong</w>
▁An other</w>
reg is
ass y</w>
as an</w>
▁investig ate</w>
▁ex tra</w>
▁cour ses</w>
wh y</w>
l ot</w>
follow s</w>
et▁ c.</w>
e os</w>
c▁ re
app▁ ly</w>
▁surroun ding</w>
▁r ules</w>
▁prof its</w>
▁hel ped</w>
▁favor ite</w>
▁f ashion</w>
▁b and</w>
▁S w
▁Rus sian</w>
vi ously</w>
u th</w>
s▁ ho▁
prov i▁de</w>
ow ▁n</w>
l ook</w>
ing ▁s</w>
es sive</w>
en▁ d
c enter</w>
c ar</w>
arm ac
1 4
▁organiz e</w>
▁nation wide</w>
▁fac tors</w>
▁e x</w>
▁distrib uted</w>
▁ch e
▁T ourism</w>
▁L iber
s ay
gro ▁up</w>
g e▁n
epart ments</w>
cooper ati▁on</w>
b age</w>
ag g
ac ked</w>
20 1▁
▁view ers</w>
▁v ulner
▁sem iconduc
▁expres s</w>
▁compl aints</w>
▁col ors</w>
▁arr ang
▁U zbe
▁P ort</w>
▁N av
w oo</w>
ta x
par ticip▁
l o▁ng</w>
▁un ion</w>
▁sc ore</w>
▁attrac ting</w>
▁anim al</w>
n▁ er</w>
m in▁
etropol ▁
ef ully</w>
▁st ar</w>
▁child care</w>
▁a b▁
▁ tion</w>
u▁ ty</w>
ter ▁s</w>
t ments</w>
s s▁
p yeong</w>
manag ▁
incl▁ud ing</w>
busin ess</w>
ag ain▁st</w>
▁respon d</w>
▁r ich</w>
▁prof essor</w>
▁p aying</w>
▁ex ecu
▁dem ocr
▁att emp
▁S ou
▁In t
ub s</w>
st at
h▁ ee</w>
h ab
eas ▁e</w>
e ous</w>
b▁ u
a i
1 6</w>
▁spec ified</w>
▁ev ening</w>
▁af t▁er</w>
▁Fr ench</w>
▁Be fore</w>
▁19 7
t y▁
s yst
ou▁ gh</w>
me tics</w>
j u▁st</w>
1 6
▁v eget
▁re form</w>
▁pro b
▁investig ating</w>
▁K won</w>
▁H a</w>
▁F ood</w>
ul l</w>
o▁r t</w>
oo den</w>
ong ▁
l ear
cla▁ ss</w>
atis tics</w>
▁mis sing</w>
▁hon or
▁encour age</w>
▁b oy
▁b i
▁&ap▁os ;s</w>
t▁ ri
ot▁ al</w>
m an▁
k m</w>
is hment</w>
in t▁
et er</w>
en▁ d</w>
▁tem ple</w>
▁for ces</w>
▁b ic
▁D ef
ur i</w>
ti g▁
t o▁rs</w>
l arg
ic ro
1 4</w>
▁pl astic</w>
▁minis ter</w>
▁man ner</w>
▁in ev
▁critici zed</w>
▁cri ticism</w>
▁c as
▁S oo</w>
▁Fr iday</w>
▁Ch urch</w>
▁19 th</w>
▁% %</w>
w in
projec ▁ts</w>
oper ati▁on</w>
j▁ ect</w>
be▁c▁ ause</w>
b ig</w>
▁sc ale</w>
▁insti tute</w>
▁diver se</w>
▁dec ide</w>
▁attrac ted</w>
wor ks</w>
ut ors</w>
t e▁rs</w>
o▁ ur</w>
h w
el▁ l</w>
be▁ st</w>
2▁ 0
▁tit le</w>
▁mar riage</w>
▁inj ured</w>
▁des cri
▁dep uty</w>
▁canc er</w>
▁acc ur
▁Pro ject</w>
y ong</w>
si t</w>
res i▁d
p▁ ro▁
h wa</w>
▁sp read
▁r ain
▁natur ally</w>
▁i ce</w>
▁eff ort</w>
▁dis play</w>
▁comm ission</w>
▁Y eon
▁L ine</w>
▁2 8</w>
tit ude</w>
s▁ ocial</w>
stitu▁ te</w>
re et</w>
pur su
oin t</w>
kno▁ wn</w>
etropol▁ itan</w>
at▁ ions</w>
al es</w>
J ong</w>
▁enj oyed</w>
▁d ri
▁applic ants</w>
▁S en
▁Em pl
r u▁
m anu
le▁ ss</w>
la▁r gest</w>
gen er▁al</w>
di an</w>
an ak</w>
Th ▁e</w>
▁syst em
▁sea l</w>
▁s ides</w>
▁res idential</w>
▁pre t
▁mach ine</w>
▁S aturday</w>
▁Per iod</w>
▁F l
th day</w>
ter ▁
s c▁h
at h</w>
S ou▁th</w>
N orth</w>
C o
▁v ia</w>
▁techn ical</w>
▁offic ers</w>
▁negoti ations</w>
▁delic ious</w>
▁bas eball</w>
▁F ire</w>
to▁ ok</w>
t e▁n
o▁ od</w>
mp ;</w>
im port
e k
an y▁
a es
▁sl ow
▁bro ken</w>
um▁ ber</w>
ul ted</w>
uclear ization</w>
ter m</w>
sup port</w>
st art</w>
s ong</w>
n ight</w>
follow i▁ng</w>
f il
com ▁e</w>
b▁ an</w>
Ad ministr
▁sl ightly</w>
▁sing ers</w>
▁p eti
▁imm igr
▁emphas ized</w>
▁consid er</w>
▁allow s</w>
▁academ ic</w>
▁H er
▁6 th</w>
re ▁s</w>
og ▁
expec ted</w>
appl ic
ag o</w>
▁tal ks</w>
▁pro por
▁appl ying</w>
▁P re
▁1 8th</w>
t▁ en</w>
si o▁n</w>
s onal</w>
med ▁
g e▁t</w>
f ive</w>
c u▁l
at▁ io▁n</w>
ag ▁es</w>
Jap an</w>
▁str ong
▁pl ants</w>
▁notif ied</w>
r ate</w>
o g</w>
m att
m ain</w>
c u▁
b efo▁re</w>
M E
▁mut atis</w>
▁l oved</w>
▁import ance</w>
▁des pite</w>
▁beg in</w>
▁aw arded</w>
▁S ub
▁Com plex</w>
w omen</w>
ra▁ p
oc ▁al</w>
i▁ od</w>
fac tion</w>
ab l▁e</w>
▁symp toms</w>
▁plac ed</w>
▁guarant ee</w>
▁cou ple</w>
▁b ed</w>
▁Rep resent
vi ol
v e▁r
th e▁rn</w>
su▁ re</w>
ro▁ ad</w>
par t</w>
er i▁ng</w>
ch an▁ge</w>
at▁ ch</w>
M ed
▁te en
▁st ead
▁s now</w>
▁perform ing</w>
▁k il
▁h ard
▁fig ure</w>
▁del iver</w>
▁d ead</w>
su it</w>
por t▁
n ecess
do▁ wn</w>
▁s un
▁respec tively</w>
▁mut andis</w>
▁innov ation</w>
▁e d
▁confir m</w>
▁bri ef
▁allow ances</w>
▁Pyeong taek</w>
up s</w>
sel ▁
res p
p▁ ort</w>
in form▁
gr y</w>
ev alu
e u
devel ▁
cons ult
c aus
a▁n ge</w>
S ch
9 2</w>
2 1</w>
▁difficul ty</w>
▁bl ue</w>
▁ar rive</w>
▁G oogle</w>
▁Environ ment</w>
thea st</w>
sh ap
r an
h ee</w>
ch ildren</w>
▁out door</w>
▁decre ased</w>
▁Y our</w>
▁Sec urity</w>
▁C ar
us ual</w>
re▁ ss</w>
perform an▁ce</w>
ev e▁ry</w>
der ing</w>
ass ad
▁inten tion</w>
▁ex cluded</w>
▁equip ped</w>
▁dev ices</w>
▁caus ing</w>
▁aff ected</w>
▁On ce</w>
▁F ollow
▁Braz il</w>
t in
si▁ ve</w>
ou s▁
op port
iv il</w>
i et</w>
g yp
di ff▁
b us</w>
Sup po▁rt</w>
D ay</w>
Ch in
▁w e
▁smo oth</w>
▁pres idential</w>
▁dis hes</w>
▁Th ailand</w>
▁O lymp
▁K y
▁B ased</w>
▁A I</w>
y ed</w>
wi▁th out</w>
t ant</w>
so▁ me</w>
o▁r k</w>
i▁ ght</w>
in t▁er
h▁ ard</w>
a w▁
8 0</w>
▁tas k</w>
▁f r▁
▁des tro
▁caus es</w>
w▁ th</w>
won do</w>
h▁ av
ear▁ ly</w>
comp a▁ny</w>
c ustom
att e▁n
as t▁er</w>
1 7</w>
▁youn ger</w>
▁w rote</w>
▁t own</w>
▁roo f</w>
▁r oyal</w>
▁ph enomen
▁d epartments</w>
▁Mong ol
par tic
par ag
o▁ t</w>
er ful</w>
con tro
▁giv es</w>
▁believ es</w>
▁Un til</w>
▁N ext</w>
▁B ar
y▁ eon</w>
ye o▁ng</w>
w▁ a▁s</w>
st y▁le</w>
r im
promo▁ te</w>
per form▁
matt e▁rs</w>
it ary</w>
eas ant</w>
U S</w>
P er
.▁ m.</w>
▁up per</w>
▁smartph one</w>
▁r an</w>
▁public ly</w>
▁ind ex</w>
▁fres h</w>
▁ear thqu
▁aut onomous</w>
▁adv ice</w>
▁Wh ich</w>
m aj▁
f our</w>
d▁ en</w>
c ulture</w>
Agric ultur▁al</w>
▁t ired</w>
▁pl en
▁l ose</w>
▁id eas</w>
▁for ced</w>
▁draw n</w>
▁cler k</w>
▁ac compan
▁Air port</w>
▁1 5th</w>
res t</w>
pro▁ ve</w>
ou▁ r</w>
or r▁y</w>
is ure</w>
ho▁ me</w>
ar▁ ds</w>
anc i▁al</w>
▁mul ti
▁g ate</w>
▁frequ ently</w>
▁adver ti
▁J o</w>
▁An aly
pr in
ic t</w>
b▁ een</w>
ad ▁e</w>
▁s quare</w>
▁reti rement</w>
▁represent atives</w>
▁continu ously</w>
▁W oo</w>
▁J eon</w>
▁Ch ildren</w>
sa▁ me</w>
or▁ y</w>
iv e▁r
c il
an c▁es</w>
an c▁
P ubl▁ic</w>
E l
1 2
▁f al
▁conn ected</w>
▁arti cles</w>
▁V arious</w>
▁Indi a</w>
▁In ter
▁C iti
wit h▁in</w>
v▁ is
reg ul
pro m▁
ordin ate</w>
n eung</w>
m er
i▁n ess</w>
it als</w>
ed n
a▁ m</w>
atiz ation</w>
I ▁n
▁spir it</w>
▁schol ar
▁pus h</w>
▁di plom
▁S illa</w>
ti▁ cle</w>
re▁ l
per son
m un
h igh
evel s</w>
c ou▁ld</w>
▁th▁ at</w>
▁su itable</w>
▁s truc
▁pres entation</w>
▁nor mal</w>
▁e co</w>
▁dis charg
▁contrib ute</w>
▁G oyang</w>
▁F ilm</w>
▁F air</w>
▁B TS</w>
w▁h en</w>
resid ▁
on ally</w>
intro duc
er ies</w>
buil ding</w>
ag ement</w>
ac ts</w>
▁vill ages</w>
▁m il
▁m ental</w>
▁discus s</w>
▁com fortable</w>
▁c ateg
▁bel ong
▁M ovement</w>
re▁ g
on ing</w>
i ew</w>
i able</w>
es tr
en e</w>
ech n▁
construc ti▁on</w>
b ok</w>
▁u ses</w>
▁f if
▁dis cipl
▁Buddh a</w>
z a</w>
with o▁ut</w>
v e▁
re g▁
pol i▁cy</w>
ouT ube</w>
ou te</w>
om▁ en</w>
em b▁
c▁ ome</w>
1 7
▁s i</w>
▁re porting</w>
▁r ose</w>
▁deliber ate</w>
▁Follow ing</w>
▁E un</w>
▁Cheong do</w>
w at▁er</w>
res pec
r a▁te</w>
p▁ eop▁le</w>
ma▁ in</w>
im po▁r
8 ▁
▁politi cs</w>
▁experi ences</w>
▁cre ative</w>
▁am b
▁L im</w>
▁Ge um
▁9 0</w>
w ea
tic ally</w>
p▁ h
ho▁ w</w>
diff ▁er
▁individ uals</w>
▁establis hing</w>
▁cl aim</w>
▁b ags</w>
▁S K</w>
w▁h y</w>
pro ject</w>
p en</w>
n▁ um▁ber</w>
m▁ on
ic ide</w>
f▁ l
el er
ee k
dis trib
c ou▁n
b a▁
N at▁ional</w>
▁won der</w>
▁pri ority</w>
▁pati ent</w>
▁ingredi ents</w>
▁ev entually</w>
▁ess ential</w>
▁cam era</w>
▁Mon day</w>
v ey</w>
um ed</w>
s▁ c
ha▁ t</w>
ell o</w>
be fore</w>
avil ion</w>
as ted</w>
ar e▁as</w>
acc ord
P reside▁nt</w>
▁vulner able</w>
▁s ister</w>
▁recomm endation</w>
▁plan e</w>
▁perf ect</w>
▁dist ance</w>
▁b ut
▁Malay sia</w>
v al
st▁ r
sh ow</w>
qu es
m ent▁al</w>
fo▁ ur</w>
en der</w>
d▁ ong</w>
der ship</w>
N ov
▁techn ologies</w>
▁ref ug
▁prac tical</w>
▁1 7th</w>
pro du▁
l ar
ha▁ lf</w>
e▁ g
ch i▁ng</w>
ar ti
al ty</w>
▁hur t</w>
▁dig ital</w>
▁affili ated</w>
vis it▁ed</w>
sm all</w>
pu▁ blic</w>
or ▁s</w>
iv en</w>
ea h</w>
d ang</w>
cul tu▁re</w>
ad minis
I N
▁sa ve</w>
▁pos t
▁m ixed</w>
▁h ▁
▁fea ture</w>
▁d ead
▁cap acity</w>
▁bus es</w>
▁S cience</w>
▁2 9</w>
w at
t▁ ure</w>
s ▁e</w>
na▁ m</w>
n in▁g</w>
m other</w>
iz ▁
iv ed</w>
fi▁ ve</w>
G y▁
B u
▁un i
▁refl ected</w>
▁ju ven
▁fl ower</w>
▁al though</w>
▁Ind ustry</w>
▁Ch ang</w>
p a</w>
ot es</w>
il i▁ty</w>
e▁c k</w>
Y oung</w>
Y eong
Res ear▁ch</w>
& apos▁
▁star tu
▁see ing</w>
▁s ource</w>
▁pro per</w>
▁mea sure</w>
▁conc ept</w>
▁com position</w>
▁b ull
▁Sing apore</w>
us eok</w>
sh i▁
r ban</w>
l ar▁ge</w>
j▁ u</w>
h an</w>
fi eld</w>
e▁ w</w>
cl ear</w>
ch ▁ed</w>
am ing</w>
▁’ ’</w>
▁v ote</w>
▁th anks</w>
▁real ize</w>
▁rea dy</w>
▁mar ried</w>
▁correspon dent</w>
▁bott om</w>
▁arch itec
w er▁e</w>
sh op</w>
r▁eal ly</w>
re a</w>
ourn al
l ead
impl em
f ur
em ▁s</w>
bu i▁l
adem y</w>
▁rem ain</w>
▁pain tings</w>
▁over come</w>
▁l ines</w>
▁inv ited</w>
▁decre ase</w>
▁d epar
▁be hav
▁as king</w>
▁acc ept</w>
▁201 9</w>
ud den</w>
u ts</w>
si on
pr ene
p i▁ng</w>
p ain
o▁ d</w>
ow ▁
l▁ ow</w>
ig ▁n
f ire</w>
emb ers</w>
devel o▁p
ac c▁
▁sp ot</w>
▁reg ardless</w>
▁no tic
▁lawmak ers</w>
▁expl an
▁Phil ipp
▁M iddle</w>
▁C or
s afe▁ty</w>
r it
or g
in j
ail s</w>
L oc▁al</w>
▁t el
▁run s</w>
▁pen sion</w>
▁m outh</w>
▁effici ency</w>
▁correc t</w>
▁c h▁
▁S ports</w>
▁& apos▁;</w>
tific ial</w>
su▁ r
spec tive</w>
o▁ uld</w>
o▁ p</w>
es s▁es</w>
en t▁ed</w>
ca▁ me</w>
app y</w>
A l
▁sam ple</w>
▁mus ical</w>
▁inv est</w>
▁certif ication</w>
▁Ar ticles</w>
z es</w>
ty▁ pe</w>
ot o</w>
comp a▁n
O per
J i</w>
G u
▁stor age</w>
▁on es</w>
▁mar k</w>
▁k imchi</w>
▁fis her
▁f oot</w>
▁canc el</w>
▁accep ted</w>
wh ic▁h</w>
under ▁
th ree</w>
p ons</w>
ind ustr
e tr
ci ous</w>
T echn
▁sou thern</w>
▁sing ing</w>
▁ran ked</w>
▁c over
▁acc um
sh▁ ow</w>
qu ir
f a▁ns</w>
er red</w>
en g▁
b eg▁
a▁ ir</w>
M Z</w>
In stitu▁te</w>
▁poll ution</w>
▁par agraphs</w>
▁l ov
▁join tly</w>
▁exten ded</w>
▁Pen insula</w>
▁ o▁t;</w>
t▁h is</w>
sea son</w>
o▁ my</w>
ol l</w>
ol ic</w>
hy un</w>
f y</w>
M ay▁or</w>
▁th ous
▁purch ased</w>
▁pro hib
▁gu ess</w>
▁f air
▁ex act</w>
▁curr ency</w>
▁cos metics</w>
▁ar my</w>
▁Sec retary</w>
▁N e
▁Def ense</w>
y ang
v e▁ry</w>
s atis
row n</w>
m▁ ak
l evel</w>
e ti▁ng</w>
bir th</w>
b it
M etropol▁itan</w>
4 5</w>
▁sp icy</w>
▁reg ard</w>
▁quanti ty</w>
▁ath let
▁H ere</w>
▁H er</w>
▁H ave</w>
▁Can ada</w>
wh a</w>
t▁h an</w>
sh▁ all</w>
or es</w>
m yeon</w>
m ea▁
ig n▁
et ers</w>
d a▁ys</w>
Gyeong sang
F in
Comm ittee</w>
▁‘ ‘</w>
▁wor ry</w>
▁deg rees</w>
▁claim ed</w>
▁chall enge</w>
▁a ▁t</w>
▁E gyp
l▁ ot</w>
g▁ ood</w>
g▁ o</w>
f ast</w>
d epart
S u▁
▁w ooden</w>
▁sp ons
▁ob tained</w>
▁dev ice</w>
▁contrib uted</w>
▁Star ting</w>
▁Se jong</w>
w r▁
tric ity</w>
is her
fi▁ nd</w>
e or
▁re ducing</w>
▁pro pos
▁fe els</w>
▁dro p</w>
▁d omin
▁d ay
▁conven ient</w>
▁N ot
▁Hy e</w>
▁H was
▁C entral</w>
v i▁ce</w>
u▁ s</w>
ro ▁u
pro t
pro d▁uc
ph one</w>
oy ing</w>
or▁ ld</w>
l a▁nd</w>
ir▁ ec
f▁ ac
for e
e▁ un</w>
b▁ ed</w>
ac hed</w>
▁Nor thern</w>
▁M otor</w>
▁1 6th</w>
tiv ity</w>
sel ect▁ed</w>
o▁ ck</w>
me eting</w>
ir ation</w>
in clu▁
il▁ ity</w>
igh ten
d▁ r
V ▁
▁r ide</w>
▁exc av
▁doc tor</w>
▁cons ecutive</w>
▁applic ations</w>
▁announ ce</w>
▁U S
▁Ab ove</w>
w▁h i▁ch</w>
t m
s▁ m
s▁ ion</w>
sit u
me an
i▁ a</w>
iv ▁e</w>
inves tig▁
h ard</w>
ar eness</w>
adv ant
R eg
▁w asn</w>
▁th ank</w>
▁r ule</w>
▁pot ential</w>
▁origin ally</w>
▁c alls</w>
▁ach ieved</w>
▁Liber ty</w>
▁I tal
us ▁e</w>
un▁ d</w>
st o▁ry</w>
s al</w>
p ass
ilit a▁ry</w>
for t</w>
ex ecu
c e▁
S▁ t
G w
7 0</w>
▁vid eos</w>
▁tre ated</w>
▁th in▁k</w>
▁offer ed</w>
▁mos tly</w>
▁far ms</w>
▁en try</w>
▁H ang
vol un
us▁ ic</w>
k i</w>
h e
c▁ y</w>
ci ent</w>
atten ti▁on</w>
at tached</w>
Minis t▁ry</w>
▁victi m</w>
▁syst ems</w>
▁pret ty</w>
▁k ing</w>
▁exper t</w>
▁disc overed</w>
▁2 1st</w>
ll ion</w>
iv ision</w>
iti ve</w>
g ▁u
f▁ am
duc ts</w>
b as▁
an▁ ds</w>
▁ref ers</w>
▁re fer
▁happ en</w>
▁Sun day</w>
▁B ri
ub le</w>
t▁ es</w>
si b▁le</w>
r ant</w>
pa▁r t</w>
ove▁r n
l a</w>
inform ati▁on</w>
ff s</w>
e▁ es</w>
el ings</w>
develop ment</w>
cl ose</w>
ain▁ ed</w>
Prov▁ ince</w>
▁w it
▁shor t
▁resol ve</w>
▁loc als</w>
▁J ustice</w>
▁8 th</w>
▁&q▁u ot▁;</w>
yp e</w>
with standing</w>
qu e</w>
produc ts</w>
p at
er ▁ed</w>
▁or ders</w>
▁m emory</w>
▁hol idays</w>
▁guid elines</w>
▁gre w</w>
▁2 5th</w>
▁12 th</w>
t a</w>
s▁ up
st a▁n
o▁m en</w>
o oting</w>
ha▁ d</w>
ci ples</w>
▁sit u
▁repor ters</w>
▁passeng ers</w>
▁lat est</w>
▁cons ulting</w>
▁c overed</w>
▁Y eah</w>
▁Bl ue</w>
▁B as
w▁h at</w>
ur i▁ty</w>
q ▁
p▁l an</w>
pol ▁
li▁ sh</w>
edn esday</w>
e un</w>
▁sup ports</w>
▁rec overy</w>
▁phenomen on</w>
▁gar den</w>
▁att ack</w>
▁S y
▁1 .
wor ki▁ng</w>
w ood</w>
un ior</w>
t▁ w
st ablis
in v▁
h▁ a▁s</w>
ev ▁er</w>
ec ti▁on</w>
app ear
▁t ▁
▁s yn
▁m eals</w>
▁fa ith</w>
▁emerg ed</w>
▁dr aw</w>
▁I T</w>
▁&apo▁s ;</w>
w ar
ta x</w>
shap ▁ed</w>
serv ice</w>
p▁ ly</w>
p▁ er▁
p ut</w>
oc i▁
i▁ d</w>
en d▁ed</w>
d▁ is
con trac
con s▁
b▁ r
▁wor se</w>
▁pus hed</w>
▁f ight</w>
▁exam ine</w>
▁en thusi
▁B yung</w>
ug s</w>
s oon</w>
pol icy</w>
par ed</w>
ob by</w>
neg oti
iz ati▁on</w>
includ ing</w>
ibr ary</w>
fac ilities</w>
e▁ st▁
a▁ ir
R us
, 3
▁sub jects</w>
▁r um
▁lec tures</w>
▁hel ps</w>
▁emerg ing</w>
▁cons ists</w>
▁comm ents</w>
▁c ooking</w>
▁ass ociation</w>
▁ac commod
▁Y ouTube</w>
▁G o
w▁ ell</w>
u ▁e</w>
m a▁n</w>
k ▁s</w>
ire ments</w>
il▁ d
g ▁ed</w>
fam ily</w>
ev e▁r</w>
estiv als</w>
er n
build i▁ng</w>
a▁l l
as ses</w>
Se ou▁l</w>
K i▁m</w>
▁supervis ion</w>
▁str a
▁revis ed</w>
▁r oute</w>
▁finis h</w>
▁exec ution</w>
▁exc essive</w>
▁cons erv
▁c ool</w>
▁atten ding</w>
▁Res idents</w>
▁200 9</w>
▁1 0,000</w>
tric ts</w>
tic ultural</w>
perform ance</w>
ou ldn</w>
dis tri▁ct</w>
am p▁
Bus▁ an</w>
▁valu es</w>
▁spread ing</w>
▁fin ance</w>
▁con tr
▁chec king</w>
▁c af
▁al co
▁Af ric
y oun▁g</w>
t ;</w>
sp▁ec ial</w>
l eft</w>
g res
e ducation</w>
G overnor</w>
E n▁
▁trad ing</w>
▁inconven ience</w>
▁d rive</w>
▁C ol
o x
maj▁ or</w>
in nov
ea t
di re▁c
▁u l
▁sw eet</w>
▁st ations</w>
▁s e▁
▁land scape</w>
▁in ▁
▁for ec
▁fl ow</w>
▁d e▁
▁compl exes</w>
▁aud iences</w>
▁S tr
▁S ch
▁Dae jeon</w>
yph oon</w>
v en▁
u▁ l</w>
sup por
sch ed
it▁ ional</w>
ent ally</w>
d▁ uri▁ng</w>
b ec▁
Par▁ ty</w>
D el
19 ▁
▁wor ker</w>
▁requ ests</w>
▁rel oc
▁r iver</w>
▁li ked</w>
▁corpor ations</w>
▁camp aign</w>
▁aw are</w>
▁C oll
▁Ap ple</w>
ri f
re tur
pursu a▁nt</w>
ok yo</w>
ok i▁ng</w>
m em▁
jus ▁t</w>
d ate</w>
2 3</w>
▁prosec utor</w>
▁lif elong</w>
▁discus sion</w>
▁an x
▁In formation</w>
▁Art▁ic le</w>
vis ory</w>
r un</w>
ol es
n ew
l e
j ud
exper ien▁ce</w>
em o▁ny</w>
bro adc
E D</w>
▁trans ferred</w>
▁suspen ded</w>
▁l evels</w>
▁g un</w>
▁g ro
▁d ark</w>
▁cul tiv
▁canc eled</w>
▁bal ance</w>
▁arres t</w>
▁D e
▁B oth</w>
▁3 5</w>
▁19 6
▁11 th</w>
ti le</w>
su▁p port</w>
su▁ b
s ch▁
n atur
i▁ z
a▁ tions</w>
as k</w>
ar t▁
ac▁ c
Y e
Or d
C it▁y</w>
▁sol ution</w>
▁pro ▁
▁her itage</w>
▁gre ater</w>
▁eng in
▁disclos ure</w>
▁d ed
▁aut umn</w>
▁S ocial</w>
▁H ello</w>
▁Del iberation</w>
▁Confuc ian</w>
s▁ chool</w>
pres ide▁nt</w>
necess a▁ry</w>
it ting</w>
igh▁ ts</w>
he▁ re</w>
f▁ ir
ex per▁
d ents</w>
ch eong</w>
ay be</w>
activ ities</w>
P yeong
▁v o
▁sa d</w>
▁fl o
▁enterpris e</w>
▁c enter
▁R oh</w>
▁O per
▁H eung</w>
y▁ ing</w>
si vely</w>
s cre
pro sec
pe▁op le</w>
op in
op e▁r
m▁ ed</w>
l arge</w>
k istan</w>
fac ▁
com fortable</w>
activ iti▁es</w>
Univer si▁ty</w>
. 0</w>
&a▁pos▁ ;▁s</w>
▁teen agers</w>
▁t ea</w>
▁sou p</w>
▁p ort</w>
▁min im
▁im posed</w>
▁car eful</w>
▁ann ually</w>
▁H otel</w>
▁Gw anak</w>
▁En g
▁E v
pr▁ es
or▁ ts</w>
o thing</w>
if f</w>
et e</w>
d e▁c
b illi▁on</w>
P res▁
H w
▁u m</w>
▁sk y</w>
▁s ac
▁lea ves</w>
▁l ux
▁don ation</w>
▁ag ree</w>
▁Dis aster</w>
▁Coun ty</w>
ten ▁
ri c</w>
pl▁ ay</w>
p ot
n et</w>
i▁n cial</w>
f oc
amp ion
ac t▁iv
ab led</w>
▁w edding</w>
▁tas ks</w>
▁s eek</w>
▁revis ion</w>
▁resol ved</w>
▁p sych
▁main tained</w>
▁ins tr
▁f arm</w>
▁app ears</w>
▁Philipp ines</w>
uch eon</w>
ti ous</w>
s epar
re v▁
per iod</w>
o▁re ign</w>
ograp h
m id
l ive</w>
in▁ es</w>
h ou▁se</w>
e▁ an</w>
eri or
er o</w>
I C
A c
▁re ply</w>
▁r are</w>
▁o bl
▁l ed
▁eff ec
▁bl ock</w>
▁aim ed</w>
▁L ife</w>
▁200 8</w>
w elfa▁re</w>
te▁ st</w>
t ot▁al</w>
s▁ho▁ uld</w>
iti on▁al</w>
im ming</w>
g i▁
el e▁c
av el</w>
ang h
S .
▁sh ot</w>
▁kn ew</w>
▁inter ests</w>
▁grow n</w>
▁foun ded</w>
▁fig ures</w>
▁approv ed</w>
▁ap p</w>
▁D oes</w>
▁An san</w>
p ped</w>
nam ese</w>
kn own</w>
iber ati▁on</w>
f ans</w>
f all</w>
en ▁ed</w>
ar a</w>
al s▁o</w>
C▁ EO</w>
▁wind ow</w>
▁wh e▁re</w>
▁wea k
▁ship ping</w>
▁sal ary</w>
▁s tic
▁proced ure</w>
▁fur n
▁ex tent</w>
▁elec tricity</w>
▁cooper ative</w>
▁ag ing</w>
▁S NS</w>
succ ess
od ies</w>
o x</w>
n a</w>
m i</w>
im b
herein a▁ft▁er</w>
f a▁m
enti ty</w>
bor n</w>
am ework</w>
ail ed</w>
ad y</w>
ac ted</w>
&▁ apos▁
▁wh enever</w>
▁tro ops</w>
▁sp eech</w>
▁pre fer</w>
▁par ti
▁independ ent</w>
▁deb t</w>
▁c ell</w>
ugg ish</w>
tra▁ ct</w>
ten s</w>
ne▁ ed</w>
mea sur▁es</w>
m ar▁
id den</w>
g h▁
at ures</w>
ab ▁or</w>
C ultur▁al</w>
▁sm all
▁gol f</w>
▁fac tor</w>
▁dead line</w>
▁ch em
▁c afe</w>
▁ar tificial</w>
▁N a</w>
▁Lea gue</w>
▁Jin ju</w>
▁I l
▁F ur
work e▁rs</w>
o▁ u</w>
med ic▁al</w>
is▁ ion</w>
ib er▁
h me▁nt</w>
ap ers</w>
D evelop
▁emp ty</w>
▁cam p</w>
▁at e</w>
▁am end
▁1 4th</w>
w a
v ▁ed</w>
ti se</w>
t ar
re fl
on ce</w>
g y
f oll▁
f a▁c
citi z
▁st ress</w>
▁relig ious</w>
▁ref er</w>
▁recru it</w>
▁pur poses</w>
▁par liam
▁ob s
▁is land</w>
▁earthqu ake</w>
▁den uclearization</w>
▁custom ized</w>
▁coll abor
▁bu ying</w>
▁P ur
▁Kor ▁
▁Fin ance</w>
▁ it</w>
r aft</w>
n at▁ional</w>
il ot</w>
i ents</w>
g roup</w>
fun c
et te</w>
eff ec
con tr▁
ci v▁
▁w is
▁v i▁
▁t r▁
▁sur face</w>
▁s in
▁e sc
▁ad ults</w>
▁W on
▁ ly</w>
v ehic
ul tu▁re</w>
tis h</w>
s▁ ub
s▁ orr▁y</w>
o▁ c
offic ▁
gro w▁th</w>
c irc
G o▁
▁w alls</w>
▁g e
▁fam iliar</w>
▁car ds</w>
▁be er</w>
▁altern ative</w>
▁adverti sing</w>
▁ab ol
▁M e
▁A ut
▁9 th</w>
t▁ op</w>
o f▁
l ove</w>
i▁c s</w>
it es</w>
g yo</w>
E m
▁sp ea
▁shar es</w>
▁o ▁n</w>
▁law s</w>
▁c ore</w>
▁Pa ju</w>
▁Not withstanding</w>
▁Inst ead</w>
tak ▁e</w>
sur ance</w>
se▁ lf</w>
oo thly</w>
m il▁
i▁ rd</w>
ed ing</w>
a▁n k</w>
al▁ l
▁un usual</w>
▁trav eling</w>
▁t ▁h
▁reg ulation</w>
▁real ized</w>
▁pic k</w>
▁car rying</w>
▁aw areness</w>
▁argu ed</w>
▁H ar
▁G o</w>
▁Dep uty</w>
t utes</w>
s▁ec ond</w>
res ses</w>
ol ▁d</w>
inter ▁
il d▁
eng th</w>
d aemun</w>
clud e</w>
as▁ te</w>
S m
3 1</w>
▁with draw
▁shar ehol
▁s etting</w>
▁p op</w>
▁m unicipal</w>
▁f und
▁dis h</w>
▁con cluded</w>
▁clean ing</w>
▁c alling</w>
▁Yong in</w>
▁S ea</w>
▁I ts</w>
▁Fed eration</w>
▁E E</w>
▁A ud
w▁h ere</w>
us h
u an</w>
ti tu
ter n▁
re ly</w>
o▁ or</w>
h▁ im</w>
e▁r t</w>
ar ian</w>
T h▁
; ll</w>
2 8</w>
▁surpris ed</w>
▁sh ops</w>
▁propor tion</w>
▁listen ing</w>
▁l isted</w>
▁honor ary</w>
▁h und
▁beg un</w>
▁arti st</w>
▁Viet namese</w>
ult▁ ural</w>
t▁ ur
t▁ ha▁t</w>
sy▁ st
si zed</w>
m y▁eon</w>
m yeo▁n</w>
j i▁n</w>
i eld</w>
fin a▁n
e ffici
T A</w>
&a▁pos; d</w>
▁u ng</w>
▁tal ent</w>
▁strong ly</w>
▁hosp itals</w>
▁e ither</w>
▁competi tive</w>
▁G lobal</w>
▁Christi an</w>
re al
pr▁ om
per ty</w>
j ae</w>
ad es</w>
Ch airpers▁on</w>
1 ,
▁star ts</w>
▁rec ip
▁pat h</w>
▁pass ing</w>
▁begin s</w>
▁agric ulture</w>
▁M embers</w>
▁C o</w>
w▁ ork</w>
t o▁r</w>
ro▁n t</w>
o▁ ur
g e▁t
al ent</w>
N▁ ew</w>
▁” ”</w>
▁us age</w>
▁re ver
▁rap id</w>
▁mon it
▁merch ants</w>
▁c ake</w>
▁T eam</w>
▁K OS
▁Gyeong sang</w>
▁G ol
▁Cons truction</w>
▁Am id</w>
vi▁ ew</w>
vis▁ it</w>
u ition</w>
t▁h em</w>
tog ▁
t es</w>
s ol▁
ra▁p h</w>
m o▁n
m ilita▁ry</w>
i ers</w>
d ▁s</w>
d eb
az a</w>
201 8</w>
▁success fully</w>
▁rea son
▁partic ularly</w>
▁op pos
▁ma il</w>
▁m ayor</w>
▁inspec t</w>
▁def in
▁cont ain
▁communic ate</w>
▁co ast</w>
▁big ger</w>
▁bic ycle</w>
▁ag ed</w>
▁Un ion</w>
▁S uch</w>
▁Reg arding</w>
▁ e▁d</w>
tr aini▁ng</w>
to▁ o</w>
r▁ ef
ri er</w>
re▁n t</w>
re duc
pro▁ v
od a</w>
fr▁ i
ev e▁n</w>
es t▁ed</w>
epend ence</w>
auth or
&a▁ mp;</w>
▁viol ation</w>
▁v eter
▁st atistics</w>
▁sl ow</w>
▁s in▁ce</w>
▁re view
▁e g
▁dis posal</w>
▁deb ate</w>
▁cont aining</w>
▁W estern</w>
▁W est</w>
▁Ar ts</w>
rup tion</w>
offic ial</w>
j a</w>
im inal</w>
i os
fi▁ re</w>
do▁ es</w>
be▁ tw
am ▁p
M ay</w>
▁sec tors</w>
▁f estivals</w>
▁eas ier</w>
▁disapp eared</w>
▁clos ely</w>
▁af ter
▁Ch ief</w>
▁13 th</w>
ti▁ cs</w>
s k</w>
r y
po▁ p
pl a▁ns</w>
oye es</w>
na▁ me</w>
gover▁n ment</w>
fr on
es t▁
ci▁ l</w>
ar ity</w>
ar ch
Se ong
▁t or
▁scholar ship</w>
▁s ci
▁requ irements</w>
▁mut ual</w>
▁m ob
▁g ain</w>
▁f ill</w>
▁f aster</w>
▁conver sation</w>
▁S ang
▁Econom ic</w>
▁A ll
v ac
re p
pur ch
oc king</w>
lo b▁
in fl
ig rap
gr▁ am</w>
ais ed</w>
H yun</w>
C EO</w>
▁sen ding</w>
▁lea dership</w>
▁h owever</w>
▁fis cal</w>
▁exemp tion</w>
▁dam ages</w>
▁contrac ts</w>
▁atten dance</w>
▁ab▁ out</w>
th rough</w>
or ig
loc at▁ed</w>
ll i▁on</w>
im m
if ts</w>
g u▁n</w>
f i▁n
establis h▁ed</w>
c▁l ud
ati o▁n
2 7</w>
2 00</w>
▁tal ked</w>
▁judg es</w>
▁h ost</w>
▁h eight</w>
▁dri vers</w>
▁Gang neung</w>
tor ies</w>
t a▁l
st ore</w>
per i▁od</w>
ou▁ t
ok es
m y
jec ted</w>
in ▁e</w>
child r▁en</w>
c ul▁
b ors</w>
air ed</w>
&▁apos; t</w>
▁to il
▁su icide</w>
▁re b
▁pre gn
▁inter ior</w>
▁id ol</w>
▁fe elings</w>
▁conf idence</w>
▁comm od
▁ab use</w>
▁J eong
ust ain
stand i▁ng</w>
s e▁n
re m▁
on ▁s</w>
l ov
l ate</w>
hous i▁ng</w>
f ilm</w>
f eel</w>
b a▁ck</w>
a▁ cc
W or
Gy▁ eong
▁suspec ted</w>
▁sub committee</w>
▁s pl
▁resc ue</w>
▁recogn ition</w>
▁oper ators</w>
▁obl ig
▁lic ense</w>
▁fri endly</w>
▁appoin t</w>
▁H uman</w>
▁Gwang jin</w>
▁G ames</w>
w in</w>
v e▁n
uc ks</w>
st ate</w>
prof ess▁
k e▁
in▁ cial</w>
indus t▁ry</w>
e▁ ld</w>
e▁ d
enti ally</w>
com es</w>
c andid
b ri
ar eas</w>
O ffic
Jap▁ an</w>
En g
Ch▁ in
▁v acc
▁pl ays</w>
▁max imum</w>
▁lea ds</w>
▁inves ted</w>
▁differ ences</w>
▁chall eng
▁car efully</w>
▁ab and
▁Analy sts</w>
▁2 8th</w>
st a▁r
st at▁
s .</w>
r▁ el
par tic▁
o▁ ther</w>
l a
in k
icul um</w>
expres s▁ed</w>
e t▁ed</w>
c ol▁
Coun cil</w>
▁st abil
▁shar p</w>
▁se x</w>
▁s udden</w>
▁p al
▁mist ake</w>
▁l ess
▁hel ping</w>
▁consid er
▁concentr ation</w>
▁L ooking</w>
▁B ro
th a▁n</w>
p▁ eopl▁e</w>
mus ic</w>
l▁ ocal</w>
li o▁n</w>
inter e▁st</w>
chi▁ ld
be▁ t
ac coun
O rdinance</w>
J os
H an
G ov▁ern
▁top ic</w>
▁st ability</w>
▁im ag
▁gar bage</w>
▁fin ding</w>
▁dr ug</w>
▁c ross</w>
▁b onds</w>
▁10 0,000</w>
ud g▁et</w>
th▁ rou▁gh</w>
su s</w>
rel ev
p▁ r
p ur▁
ough ly</w>
m▁ e
ib ility</w>
g▁ r
elec t▁ed</w>
ch▁ ang
ar ▁s</w>
agric ultur▁al</w>
▁rel ation</w>
▁re ign</w>
▁manag ing</w>
▁fos ter</w>
▁expres sion</w>
▁ab und
x es</w>
wor▁ k</w>
techn olo▁gy</w>
t arily</w>
pl▁ ay
o y▁
m▁ arket</w>
id ▁e</w>
g en▁
fi▁ l
ar ks</w>
app ed</w>
Y ang
R ep
Gye on▁g
▁t i▁
▁replac ed</w>
▁low est</w>
▁hom es</w>
▁br ands</w>
▁Seong nam</w>
▁S e</w>
▁Par ticip
▁M et
ul p
t▁ ;</w>
t echn▁
r▁ eg
ro oms</w>
re comm
j ang</w>
itt ees</w>
ij ing</w>
g i▁ve</w>
es t▁iv
e ti▁
dec id▁ed</w>
c ing</w>
A T</w>
▁ver sion</w>
▁tr uth</w>
▁th er▁e</w>
▁sp aces</w>
▁mis s</w>
▁led ger</w>
▁ins cri
▁inc en
▁continu ous</w>
▁concentr ated</w>
▁aw ards</w>
▁adop ted</w>
▁T own</w>
r ▁e</w>
oo ked</w>
om y</w>
iz i▁ng</w>
h and
a▁b out</w>
ag on</w>
U ▁n
▁un less</w>
▁su n</w>
▁shar ply</w>
▁sh oes</w>
▁sec ured</w>
▁sa uce</w>
▁offic io</w>
▁gl ass</w>
▁fr anch
▁f o▁r</w>
▁e th
▁commer ci
▁c up</w>
▁ac ts</w>
▁U rban</w>
▁R oad</w>
▁Bri tish</w>
▁2 7th</w>
▁/ /</w>
wor d</w>
un t▁il</w>
si▁ an</w>
sec ond</w>
r ap▁
r a
our self</w>
ll ed</w>
im p
ic▁ ation</w>
e▁l op
elec omm
ed om</w>
e very
b▁ l
a▁ ke</w>
al o▁ng</w>
▁wat er
▁volunte ers</w>
▁stra ight</w>
▁semiconduc tor</w>
▁s u▁ch</w>
▁newsp aper</w>
▁ma p</w>
▁eng aged</w>
▁cr imes</w>
▁M yung</w>
▁Gang seo</w>
▁En ter
v▁ ey</w>
u al▁ly</w>
t▁h s</w>
tm as</w>
s ay</w>
r un
pro jects</w>
pres s</w>
pres id
ner ship</w>
jo▁ bs</w>
f▁ ri
be ing</w>
at ched</w>
al i
ME s</w>
1 1
▁wid ely</w>
▁sub ordinate</w>
▁sec ret</w>
▁grad es</w>
▁fru it</w>
▁dr y</w>
▁dismis sed</w>
▁cr iminal</w>
▁confir mation</w>
▁citi zen</w>
▁canc ell
▁bu yers</w>
▁ac ting</w>
▁a id</w>
▁Organiz ation</w>
▁C ong
▁B aek</w>
z z
ris e</w>
re▁ ad</w>
pol iti
par ty</w>
p e▁n
or▁ ry</w>
on er</w>
ne▁ ss</w>
l aun
it ely</w>
empl oyment</w>
ea ble</w>
d▁ idn</w>
de▁ v
ca▁ se</w>
b eh
av ing</w>
an d▁ed</w>
&a▁po▁s ;▁t</w>
▁th ough
▁t uition</w>
▁sl uggish</w>
▁r ock</w>
▁pr ison</w>
▁exhib itions</w>
▁ex posed</w>
▁character ized</w>
▁boo k
▁ad just</w>
▁Uzbe kistan</w>
▁Gir ls</w>
▁2 4th</w>
▁2 2nd</w>
ul ▁ts</w>
u ti
ta i▁n
s▁h ould</w>
spec ial
s oci
rou▁ p</w>
p m</w>
k▁ er</w>
hea l▁th</w>
h op
f re
comm unic
activ ▁
▁r out
▁purch asing</w>
▁mul ticultural</w>
▁elec tions</w>
▁d ea
▁brief ing</w>
▁benef it</w>
▁alco hol</w>
▁G ar
▁2 6th</w>
show ▁ed</w>
m▁ ade</w>
m u▁ch</w>
i▁ st
it▁ h
in ati▁on</w>
igh ters</w>
i ously</w>
g ence</w>
cheong nam</w>
Educ ati▁on</w>
&ap▁os▁ ;s</w>
▁ter min
▁stud ies</w>
▁sim ply</w>
▁min ute</w>
▁l ot
▁hon or</w>
▁fi ref
▁fi erce</w>
▁exper im
▁d ogs</w>
▁br ight</w>
▁al loc
▁Pl anning</w>
▁C C
you▁ r</w>
w a▁rd</w>
termea sures</w>
si c</w>
re ds</w>
p ast</w>
ood les</w>
m us▁ic</w>
m ar</w>
le▁ ft</w>
l ong
in▁ a</w>
g ers</w>
c ong
bo▁ dy</w>
a▁ ve</w>
Se ung</w>
9 0</w>
&▁apo▁s ;</w>
▁transac tions</w>
▁stud ied</w>
▁sh ooting</w>
▁sent ence</w>
▁no ise</w>
▁im ported</w>
▁foot ball</w>
▁fol k</w>
▁disp ute</w>
▁discus sed</w>
▁bo at</w>
▁b a▁
▁S ih
▁R el
▁Gre en</w>
um▁ an</w>
tre prene
th erm
spec ts</w>
sal ▁es</w>
o tions</w>
o tic</w>
o king</w>
mon▁ th</w>
ind i▁ng</w>
f▁ it</w>
bl ▁e</w>
F ound
▁y ellow</w>
▁un cer
▁resear chers</w>
▁reg arded</w>
▁recogn ize</w>
▁p our
▁le isure</w>
▁intro ducing</w>
▁hand ling</w>
▁det ail</w>
▁ded icated</w>
▁cl ient</w>
▁civ ic</w>
▁accompan ied</w>
▁S in
▁R yu</w>
▁D ivision</w>
▁2 3rd</w>
u▁ nd</w>
uc ▁
ro▁ ng</w>
por ters</w>
op ▁er
is h▁ed</w>
inc r▁
her ▁e</w>
form ed</w>
f ather</w>
ea s▁ed</w>
con fir
ant i</w>
al l▁y</w>
E X</w>
, 7
▁rem ov
▁over l
▁offic ially</w>
▁j ournal
▁h ot
▁g ained</w>
▁discus sions</w>
▁b ow
▁P o
▁N ex
▁Ch useok</w>
wh e▁n</w>
relev a▁nt</w>
rec e
p▁ ay</w>
pow ▁er</w>
o▁w s</w>
im pro▁ve</w>
fam ▁
e▁ me▁nt</w>
er ship</w>
c a▁l
atten d▁ed</w>
a eg
N or
J in</w>
B usan</w>
▁wor ▁
▁vic tory</w>
▁pro ud</w>
▁down town</w>
▁contrib ution</w>
▁construc ted</w>
▁For t
u▁ es</w>
stitu tion</w>
r ig▁ht</w>
r a</w>
pr▁ iv
oy s</w>
l a▁te</w>
k il
it▁ e</w>
incre a▁se</w>
h ot</w>
et own</w>
equ ip
clus ion</w>
c ent</w>
bec o▁me</w>
at e▁ly</w>
I m
▁su ffer</w>
▁rec ycl
▁rec ons
▁p age</w>
▁nor m
▁ad ding</w>
▁T om
▁Hwas eong</w>
rest aur
pos ▁ed</w>
pl a▁n
manag ement</w>
lik ▁e</w>
k ▁e</w>
forc eme▁nt</w>
ci v
b ooks</w>
assad or</w>
armac eu
S p
M in</w>
▁sof t</w>
▁sem ester</w>
▁s ounds</w>
▁prem ium</w>
▁m ur
▁issu ance</w>
▁det ected</w>
▁athlet es</w>
▁S ohn</w>
▁M an
▁3 0th</w>
th o▁se</w>
s▁t em</w>
own ▁ed</w>
or ful</w>
f ou▁nd</w>
ess ors</w>
d▁ le</w>
ch e
be▁tw een</w>
a▁r m</w>
attac h▁ed</w>
aff ai▁rs</w>
Or ganiz
Comm▁ ittee</w>
▁win ner</w>
▁sh ut
▁satis fied</w>
▁n erv
▁m om</w>
▁in form</w>
▁gr anted</w>
▁enti ty</w>
▁dis tricts</w>
▁advertis ements</w>
▁Y un</w>
▁Represent ative</w>
▁J un</w>
▁J oon</w>
▁Ac ademy</w>
w▁ in</w>
th i▁rd</w>
s▁h all</w>
s ocial</w>
p▁ro v
pos iti▁on</w>
p ati
os en</w>
o ju</w>
enti a</w>
det erm
d on
c u▁r
ay a</w>
all et</w>
all en</w>
Pro moti▁on</w>
P op</w>
F ac
A cc
▁w a▁s</w>
▁util ize</w>
▁m ir
▁m el
▁interpre ted</w>
▁cl ubs</w>
▁J ung
urs day</w>
pop ul▁ar</w>
ne igh
n ecessary</w>
m▁ ov
m▁ eans</w>
liv i▁ng</w>
lis t</w>
iti me</w>
is s</w>
il ▁e</w>
ific ations</w>
ga▁ me</w>
fin anci▁al</w>
f un▁
ex ▁p
eiv ed</w>
ea l▁ed</w>
d ata</w>
c at
ac qu
Oper ati▁on</w>
▁wor s
▁v ess
▁tea ch</w>
▁sen si
▁pl easant</w>
▁parti ally</w>
▁memor ies</w>
▁g aining</w>
▁exclus ive</w>
▁bl ocked</w>
▁Som etimes</w>
▁H ospital</w>
▁Empl oyment</w>
vinc es</w>
t▁ ers</w>
st age</w>
me▁ mb
lo▁ ve</w>
jec ▁t</w>
itch en</w>
is tr
il▁ y</w>
h e▁r</w>
h ar
gre▁ at</w>
f ul▁
exc e▁
er▁ gy</w>
con trib
comp reh
busin ess▁es</w>
b on</w>
az on</w>
all igrap
al ize</w>
D emocr
6 5</w>
1▁ st</w>
1▁ 0</w>
▁war ning</w>
▁stre ets</w>
▁offer ing</w>
▁gu ests</w>
▁fal se</w>
▁fail ure</w>
▁det erior
▁ch ose</w>
▁auth or</w>
▁advertis ement</w>
▁T okyo</w>
▁Se ong</w>
▁C ivil</w>
▁&a▁ pos;
under▁ st
reg ion▁al</w>
re f▁
r ent</w>
p ric
ne▁ w</w>
iz e▁d</w>
h arm
estiv ▁al</w>
com b
b▁ et▁
aug ur
ann i▁ng</w>
S ub
R S</w>
A c▁t</w>
3 2</w>
▁w ine</w>
▁tro uble</w>
▁satis faction</w>
▁oper ations</w>
▁monit oring</w>
▁hy dro
▁fif th</w>
▁execu tives</w>
▁e cos
▁des t
▁bu reau</w>
▁autom atically</w>
▁an cient</w>
▁ab ou▁t</w>
▁Mus ic</w>
▁M in
▁Ir an
▁Comp any</w>
w ant</w>
p rec
i▁ th</w>
ib▁ le</w>
i ums</w>
h▁ ere</w>
ed ge</w>
a▁ ct</w>
as s▁
all ow
ac hing</w>
T X</w>
▁wh om</w>
▁w ages</w>
▁sw imming</w>
▁re organiz
▁fre ely</w>
▁fir m</w>
▁fa ith
▁dou b
▁discipl inary</w>
▁coll ecting</w>
▁Kor eas</w>
▁Kak ao</w>
▁Con cer
w ar</w>
og ue</w>
lob▁ al</w>
iti o▁n</w>
isten ce</w>
ho▁ ld</w>
e▁r ▁e</w>
e▁ ven</w>
ea l▁th</w>
c us
ap ed</w>
Pr▁ o
K yung</w>
2 9</w>
▁wor st</w>
▁volun tarily</w>
▁un comfortable</w>
▁st adium</w>
▁serv ants</w>
▁respon ded</w>
▁n early</w>
▁inev itable</w>
▁exper tise</w>
▁earn est</w>
▁c l▁
▁Wh ite</w>
▁Citi zens</w>
▁C ri
y one</w>
re li
ograp hy</w>
n etw
i▁ re</w>
f indi▁ng</w>
ec onom
comm un
c m</w>
bur s
an am</w>
ac tly</w>
C ente▁r</w>
▁trans par
▁thre at
▁sp r
▁situ ations</w>
▁sem in
▁re f▁
▁p ilot</w>
▁los ing</w>
▁implement ing</w>
▁dang erous</w>
▁conflic ts</w>
▁clim ate</w>
▁V alley</w>
▁D i
▁Chris tmas</w>
we▁ l
ut u▁re</w>
tra ordin
ti▁ ce</w>
tern s</w>
su n</w>
sign ific
ou g▁h</w>
i▁ sh
in t</w>
fore i▁gn</w>
e▁c tion</w>
et▁ her</w>
essi ons</w>
comp▁ an
b ack
ar row</w>
Minis t▁er</w>
Jos e▁on</w>
Chin e▁se</w>
▁re fr
▁mod els</w>
▁judg ment</w>
▁im ages</w>
▁g one</w>
▁evalu ate</w>
▁cop y</w>
▁comb ination</w>
▁classif ied</w>
▁cl in
▁c atch</w>
▁Th ai</w>
▁S oon</w>
▁Per sons</w>
uc tion</w>
t y
su ant</w>
parag ra▁ph</w>
o d▁
n▁ o</w>
mat ters</w>
is ▁ts</w>
f o▁reign</w>
es ▁ts</w>
d▁ es
c ri▁
b▁ ack</w>
▁win ners</w>
▁tax pay
▁sol id</w>
▁s enti
▁s ear
▁fl ag</w>
▁doll ar</w>
▁curr iculum</w>
▁certif ied</w>
▁boo ked</w>
▁amend ment</w>
▁P as
▁4 5</w>
s man</w>
ri ers</w>
res erv
p aid</w>
m▁ ore</w>
me▁ et</w>
le▁ ad</w>
l ands</w>
ist ant</w>
is ition</w>
h old</w>
f ind</w>
con str
comm itt▁ee</w>
a▁ st</w>
at h▁er</w>
at e▁s</w>
V iet
J u▁
▁sh▁ all</w>
▁s outh</w>
▁s ew
▁revital ize</w>
▁rec over</w>
▁pay ments</w>
▁law suit</w>
▁fir ms</w>
▁W ednesday</w>
▁1 50</w>
s▁ y
serv ic▁es</w>
receiv ▁ed</w>
p▁ s</w>
ot▁ her</w>
hel ▁d</w>
fina▁n cial</w>
es ▁e</w>
d in▁g</w>
civ▁ il</w>
Se o</w>
M ar▁
H ong</w>
C orpor
, 6
▁tur ning</w>
▁tea ching</w>
▁pow erful</w>
▁inves tments</w>
▁for um</w>
▁expen se</w>
▁ass igned</w>
▁An g
urr y</w>
t al▁
s▁ pec
p ay</w>
no▁ w</w>
mat er
h ig
h eal
g▁ lobal</w>
g ang</w>
eleb ri
e ung
c ul▁tural</w>
an s▁
Ch e
B usin
A ff
▁transac tion</w>
▁sol ved</w>
▁smo king</w>
▁neighbor hood</w>
▁m e▁
▁kindergar ten</w>
▁dis close</w>
▁des ire</w>
▁demonstr ation</w>
▁behav ior</w>
▁Stud ents</w>
▁M etropolit▁an</w>
▁Every one</w>
▁19 5
y wood</w>
wo▁ o</w>
v i▁ng</w>
tu▁r n</w>
tiv ▁e</w>
su gg
s ou
on l▁y</w>
m e▁n
l ets</w>
l and
ill i
il os
id ity</w>
h▁ er
hy u▁n</w>
d ae</w>
S. -
Min▁ is▁
, 4
▁vi ews</w>
▁tr ain
▁sin cer
▁scen ery</w>
▁kn ows</w>
▁intell igence</w>
▁identif ied</w>
▁deb ut</w>
▁be ef</w>
▁Tur key</w>
▁3 2</w>
ult an
t ingu
sum m▁it</w>
st an
qu art
ot▁ ed</w>
if ying</w>
i a▁l</w>
et h</w>
e a▁rs</w>
b ad</w>
at▁ is</w>
J in
. .</w>
▁unf air</w>
▁treas ury</w>
▁sm oothly</w>
▁restric tions</w>
▁rep eated</w>
▁multi ple</w>
▁fail s</w>
▁clos er</w>
▁belong ing</w>
▁aff ect</w>
▁U lsan</w>
▁Se ok</w>
▁J ang
▁F our</w>
v ious</w>
trad ition▁al</w>
pol i▁ce</w>
o▁ y
o k▁
it ch</w>
ig ar
h on
govern ▁or</w>
ec onomy</w>
d▁ i
cer tific
beg▁ an</w>
az ing</w>
az e</w>
ap o</w>
ac ▁e</w>
S ung</w>
S p▁
▁t ears</w>
▁suspen sion</w>
▁strength ening</w>
▁pun ishment</w>
▁p utting</w>
▁inspec tions</w>
▁impres sive</w>
▁fl ex
▁cons ent</w>
▁comm itted</w>
▁br idge</w>
▁bor row
▁bir thday</w>
▁at titude</w>
▁Th eir</w>
▁Her itage</w>
▁B el
u▁n e</w>
therm ore</w>
p i
o▁ ffice</w>
op▁ en</w>
om p
ic an</w>
h w▁an</w>
gan ic</w>
ed y</w>
d omes
b i
ang ing</w>
ac▁ k</w>
Com p
&ap▁os; ▁s</w>
▁usu al</w>
▁typ ical</w>
▁s oci
▁rit ual</w>
▁m ood</w>
▁li b
▁l ength</w>
▁jud ge</w>
▁happ iness</w>
▁frequ ent</w>
▁explan ation</w>
▁comb ined</w>
▁beh alf</w>
▁Kor▁ ea</w>
y l
un t</w>
tra it</w>
th in▁g</w>
spec t</w>
l friend</w>
i▁ nd</w>
iv ely</w>
if elong</w>
b udget</w>
S ang</w>
H o▁ng</w>
&▁apo▁s ;s</w>
▁un d▁er</w>
▁sm ell</w>
▁rem ained</w>
▁r aw</w>
▁politi ci
▁hum an
▁evalu ated</w>
▁ag ent</w>
▁H ol
▁G ood</w>
▁For tress</w>
▁A si
ur ches</w>
se▁r vice</w>
ro▁ ss</w>
perc e▁nt</w>
p eopl▁e</w>
organiz atio▁ns</w>
n eed</w>
j obs</w>
h ealth</w>
ff▁ ice</w>
exp▁ ec▁ted</w>
cer emo▁ny</w>
ar e▁a</w>
administr ati▁ve</w>
N E
▁war rant</w>
▁w astes</w>
▁go als</w>
▁gather ing</w>
▁fil ming</w>
▁ass et</w>
▁ad ult</w>
▁abund ant</w>
▁R ather</w>
▁Ch a</w>
▁B ig</w>
res ear▁ch</w>
or e
n▁ el</w>
mut at▁is</w>
manag▁ ement</w>
il t</w>
ij eong
he▁ e</w>
h um
f av
ec o</w>
c▁ on▁
az ak
ap y</w>
activ e▁ly</w>
T ae</w>
▁reason able</w>
▁pro vinces</w>
▁m ass</w>
▁id entity</w>
▁c at</w>
▁Sup er</w>
▁Offic ials</w>
▁G uro</w>
wor king</w>
w eb
ti m▁
s▁ i</w>
st▁ ud
pro▁ duc
pol icies</w>
i▁s h</w>
h osp
disc us
d om▁
coun tr
bo▁ th</w>
appoin t▁ed</w>
S a▁m
2 6</w>
▁tou ch</w>
▁st ayed</w>
▁sec urities</w>
▁re pl
▁proc essed</w>
▁pres ervation</w>
▁mar ks</w>
▁m ass
▁gr and</w>
▁fac ing</w>
▁fac ilit
▁expl os
▁dr unk</w>
▁cr ack
▁appreci ate</w>
▁L ike</w>
▁Be ijing</w>
▁ at▁ion</w>
vinc ▁e</w>
t▁ ax</w>
tim es</w>
st op</w>
si al</w>
se▁ as</w>
r▁ ev
particip a▁te</w>
nam ent</w>
l▁ ittle</w>
l ea▁r
ign ment</w>
ic▁ le</w>
ci ti▁es</w>
bu y</w>
a▁l ly</w>
a▁ de</w>
aw n</w>
an der</w>
W elfa▁re</w>
En ter
Ch▁ oi</w>
C o▁m
▁v oc
▁t ons</w>
▁sit ting</w>
▁predic t</w>
▁p eak</w>
▁netw or
▁libr aries</w>
▁l et
▁in her
▁h ate</w>
▁fund am
▁fu el</w>
▁b attle</w>
▁an ticip
▁St reet</w>
w▁ il▁l</w>
w▁ ere</w>
un g▁
st yle</w>
se▁ ok</w>
ri▁ ce</w>
p▁ ut</w>
p▁ il</w>
proc ess</w>
pre ad</w>
m ark</w>
l as▁t</w>
k in
ind ivid
in vol
fac il▁
el op
av o
at er
M in
K▁or ea▁n</w>
F ed
Ch▁in ese</w>
▁volun tary</w>
▁though ts</w>
▁s it</w>
▁p ea
▁manag ers</w>
▁kindergar tens</w>
▁g ri
▁exc eeded</w>
▁e ase</w>
▁d ong</w>
▁c ode</w>
▁boy friend</w>
▁acc used</w>
▁Is n</w>
▁G un
▁Baek je</w>
w ol</w>
ut ers</w>
ub ▁l
sub sid
sh r
prov id
particip at▁ed</w>
ot a</w>
m▁ ake</w>
m ir
i ance</w>
fer ▁
f os
es ides</w>
con n
an t▁s</w>
Y ong
P I</w>
3 5</w>
▁th ea
▁scen es</w>
▁liter ature</w>
▁in quir
▁f ear</w>
▁exp iration</w>
▁e c
▁design s</w>
▁de pl
▁arrang ed</w>
▁ap olog
▁J ong
▁Gr and</w>
▁Fur thermore</w>
▁F amily</w>
u esday</w>
t▁ ment</w>
t▁ ak
tom orrow</w>
sup pl
sen i▁or</w>
quart e▁rs</w>
p▁ eo▁ple</w>
ot ors</w>
os s
op en</w>
on▁ ce</w>
o ir</w>
m om
it ations</w>
ing ing</w>
hous eh
gr at
diffic ul
design at▁ed</w>
c ar▁
bus i▁ness</w>
bo x</w>
Prov i▁nce</w>
N▁ orth</w>
M o▁on</w>
J e▁
I f</w>
&a▁p▁os ;▁s</w>
▁moun tains</w>
▁furn iture</w>
▁cul tures</w>
▁continu ing</w>
▁commun ities</w>
▁Pro sec
▁P eace</w>
▁Han wha</w>
▁Gim po</w>
▁El ementary</w>
▁C er
▁B en
wh el
sit u▁
ro▁ le</w>
m id</w>
iqu es</w>
igh te
h▁ el
et t▁er</w>
enterpris ▁es</w>
e ver
d re
▁w ake</w>
▁veget ables</w>
▁restor ation</w>
▁mar ine</w>
▁m al
▁f ing
▁disc rim
▁discrim ination</w>
▁dest ination</w>
▁dep ic
▁crow ded</w>
▁cor ner</w>
▁calcul ated</w>
▁bo y</w>
▁R ight</w>
▁Olymp ics</w>
▁O ver
▁Med ical</w>
▁6 5</w>
▁ ati▁on</w>
u▁ ps</w>
um es</w>
th i▁ng</w>
si x</w>
rec ogn
prof essi
po▁ se</w>
ne▁ ar</w>
l▁ ea
ho▁ ur</w>
ei▁ r</w>
e ers</w>
c▁ om▁
con ver
ch e▁
ad ded</w>
M etro
▁sign ing</w>
▁s ick</w>
▁quar ters</w>
▁pas sion</w>
▁num bers</w>
▁mil k</w>
▁leg s</w>
▁empl oyed</w>
▁disp atched</w>
▁col onial</w>
▁an c
▁Nav er</w>
▁200 7</w>
yong yang</w>
un iver
umb ent</w>
st a▁ge</w>
sl etter</w>
re▁ n</w>
rel ated</w>
pro gra▁
m▁ ark
ing dom</w>
if i▁ed</w>
g▁ o
es tion</w>
en ty</w>
e b▁
cont in▁
a▁t a</w>
a▁ tive</w>
an▁ ies</w>
ang ible</w>
a f▁f
T ▁h
C o▁
▁smo ke</w>
▁prob ably</w>
▁pres erv
▁passeng er</w>
▁occ as
▁n orth</w>
▁m agn
▁larg er</w>
▁inform atization</w>
▁hol ds</w>
▁dis advant
▁b ath
▁am oun
▁Sh ow</w>
▁G iven</w>
▁D r
▁C r
▁C ath
sum er</w>
r▁ et
p▁l eas▁e</w>
o▁r m</w>
k▁ now</w>
ig ▁n</w>
ho▁ on</w>
h am</w>
gu id
fi e▁ld</w>
eor ological</w>
eed ▁ed</w>
ea▁ s</w>
a▁ ti▁ons</w>
a▁ ting</w>
ac tive</w>
J u▁ng</w>
▁w arm
▁smartph ones</w>
▁orig in</w>
▁n utr
▁n s</w>
▁lik es</w>
▁hor se</w>
▁destro yed</w>
▁cre am</w>
▁am id</w>
▁M r
▁Ind ependence</w>
▁20 s</w>
thr▁ ough</w>
s i▁n
resp on▁
or d▁
ol▁ ds</w>
g ive</w>
f ish</w>
f ar</w>
b ly</w>
b al
ach es</w>
ac ting</w>
L ea
▁vo ices</w>
▁un like</w>
▁trans port</w>
▁subsid ized</w>
▁stat ue</w>
▁sec uring</w>
▁qu ick</w>
▁person ality</w>
▁m ▁
▁f allen</w>
▁ep is
▁W ater</w>
te er</w>
t op
su▁ l
pol i▁
on ic</w>
o ong</w>
mon ey</w>
med ia</w>
itt e▁e</w>
issu e</w>
ic i▁es</w>
he▁ l▁d</w>
her e
fo▁r m
f ar▁
en ▁s</w>
elebri ties</w>
bl ing</w>
ati▁ ons</w>
ad ver
ad diti
S oon</w>
, 8
▁y ourself</w>
▁suspec t</w>
▁ref▁ erred</w>
▁prom ising</w>
▁k itchen</w>
▁initi al</w>
▁en treprene
▁ecos ystem</w>
▁disapp oin
▁chann el</w>
▁arti stic</w>
▁Par is</w>
▁M i</w>
▁H ous
▁G un</w>
▁&ap▁os ;</w>
x im
t re▁
t l▁y</w>
st re▁
pop ul
o▁ o</w>
f ro▁nt</w>
em a</w>
bre ak
at o</w>
as▁ s
3 7</w>
1▁ 00</w>
, 9
▁respon dents</w>
▁re place</w>
▁mis sion</w>
▁lux ury</w>
▁hum ans</w>
▁gener ations</w>
▁fin es</w>
▁c o▁n
▁bea ch</w>
▁b ills</w>
▁ass ault</w>
▁an gry</w>
▁allow ance</w>
▁W ell</w>
▁T aek
▁3 4</w>
y a</w>
u▁ sed</w>
probl em</w>
pro gr▁am</w>
ic ed</w>
gener ati▁on</w>
fras truc
ex c▁h
en▁ g
en sus</w>
em pl▁
e e▁n</w>
b enef
a▁ id</w>
aw ei</w>
Ch oi</w>
&▁ap▁os ;s</w>
▁z ones</w>
▁un ification</w>
▁stead ily</w>
▁st ood</w>
▁some what</w>
▁saf ely</w>
▁retur ning</w>
▁rel ief</w>
▁refug ees</w>
▁gr at
▁di e</w>
▁day care</w>
▁cons ult</w>
▁a ro
z ▁
vin gs</w>
ub▁l ic</w>
sup▁ port</w>
stud ents</w>
star t▁ed</w>
s er
r an</w>
oun ded</w>
nor the▁rn</w>
me▁ m
m yeong</w>
in o</w>
ic▁ an</w>
h i</w>
e▁r ed</w>
e▁n tial</w>
et in▁g</w>
du▁ ce</w>
co▁ st</w>
contin u
au d</w>
ath e▁r</w>
ap yeong</w>
M on
E ▁n
5 00</w>
&apo▁s ;
▁sm ile</w>
▁shr ine</w>
▁sac rif
▁res t
▁r o▁
▁plen ary</w>
▁pack age</w>
▁p ip
▁o o</w>
▁memor ial</w>
▁l ights</w>
▁ful f
▁ex ist</w>
▁dro pped</w>
▁di et</w>
▁con ▁
▁co ordin
▁N ong
▁Med ium</w>
▁In surance</w>
▁B ible</w>
v i▁c
ul ating</w>
t▁ ee</w>
tur ▁es</w>
ter ▁ed</w>
s▁ ized</w>
st a▁rt</w>
par▁ ty</w>
p eo▁ple</w>
os is</w>
och o</w>
inves tme▁nt</w>
il s</w>
ien t▁ed</w>
domes t▁ic</w>
ag▁ ainst</w>
ac t▁
Par ty</w>
Gy▁eong gi</w>
C om▁
▁v oting</w>
▁pus hing</w>
▁ordin ance</w>
▁m ission
▁j oy</w>
▁inc umbent</w>
▁fri ed</w>
▁expl ains</w>
▁discharg ed</w>
▁deleg ated</w>
▁cur ious</w>
▁b ▁y</w>
▁ad ap
▁Sou theast</w>
▁J oo</w>
▁B ucheon</w>
▁Am azon</w>
ve iled</w>
st a▁
ric s</w>
rec e▁
pro moti▁on</w>
poin t</w>
par t
o▁ t▁;</w>
me et</w>
iv i▁ng</w>
il eg
g ir
exc ell
ew er</w>
enc ing</w>
en h
el ection</w>
dr aw</w>
cl ass</w>
cer ▁
c anc
a▁l so</w>
ar r▁
Tr ans
S ing
H an</w>
Ar ticle</w>
▁thor oughly</w>
▁su it</w>
▁st ated</w>
▁pres ence</w>
▁p ork</w>
▁n arrow</w>
▁happen s</w>
▁extre me</w>
▁dre ams</w>
▁displ ayed</w>
▁disclos ed</w>
▁d er
▁claim s</w>
▁cl othing</w>
▁chea p</w>
▁Fort unately</w>
▁Do osan</w>
▁D MZ</w>
wor▁ ld</w>
w eek
w a▁y</w>
th▁ ing</w>
sur v▁ey</w>
res ol
pon ent</w>
os ▁e</w>
om ing</w>
o b▁
i z</w>
es▁ tiv
el ih
ee ing</w>
d el▁
c ard</w>
ar i</w>
S pec
J uly</w>
C l▁
▁tr ack</w>
▁st aying</w>
▁senti ment</w>
▁pr im
▁piec es</w>
▁ow ned</w>
▁mon etary</w>
▁lea gue</w>
▁k eeping</w>
▁intell ec
▁insti tutes</w>
▁g rap
▁dr ugs</w>
▁decor ated</w>
▁bor der</w>
▁b ▁e</w>
▁S ystem</w>
▁Met eorological</w>
▁M ich
▁Exc use</w>
su fficient</w>
sh al▁l</w>
se▁ c
s ea</w>
pa▁ id</w>
on▁ es</w>
ond on</w>
l▁ i
l ic
l ater</w>
i▁ se</w>
ho▁ pe</w>
h alf</w>
ef s</w>
ech an
conduc t▁ed</w>
ch es
c ent
al▁ ready</w>
▁u pl
▁tre at</w>
▁spen ding</w>
▁sel ecting</w>
▁sc ored</w>
▁res erve</w>
▁n oodles</w>
▁m ill
▁lea se</w>
▁conserv ative</w>
▁center ed</w>
▁allow ing</w>
▁accur ate</w>
▁D an
▁Com pared</w>
un a</w>
u to</w>
the▁ m</w>
stud ▁
serv ▁
pe▁r son</w>
on a</w>
om b
ind us▁
h▁ it</w>
g oo▁d</w>
f▁ or▁
f▁ amily</w>
for ce</w>
es▁ t
er ea
en eration</w>
employ ▁ed</w>
c▁ omm
ch ▁er</w>
bl ed</w>
ati v▁e</w>
ath y</w>
ag oda</w>
M▁ ay</w>
C o▁un
1▁ 9
▁w oul▁d</w>
▁str ange</w>
▁sett led</w>
▁s inc▁e</w>
▁ref un
▁prom ised</w>
▁ne ti
▁guar dian</w>
▁g ifts</w>
▁fun eral</w>
▁ev ac
▁const antly</w>
▁compet e</w>
▁bo ost</w>
▁b an
▁b all
▁W ill</w>
▁V ol
▁S ur
▁H ist
▁G al
yo▁ ur</w>
w a▁ys</w>
trans port
su▁ m
som e
p▁ol icy</w>
pr▁iv ate</w>
prev e▁nt</w>
o▁u gh</w>
or ient▁ed</w>
o j
il i▁es</w>
g▁ er</w>
et c.</w>
em ati
ech eon</w>
d ow
charac ter
aud i</w>
Ch u▁ng</w>
&apo▁s ;▁s</w>
▁str onger</w>
▁sec re
▁reg ulatory</w>
▁pr ime</w>
▁oper ates</w>
▁lin ked</w>
▁intern et</w>
▁e scape</w>
▁dr aft</w>
▁dis charge</w>
▁advis ory</w>
▁Y eon</w>
▁S MEs</w>
▁J u</w>
▁Al ong</w>
▁ ted</w>
t▁ eam</w>
tr a▁c
th i▁n
t alk</w>
pres cri
n al</w>
i▁ ll
h it</w>
e▁r r▁ed</w>
en th</w>
b a▁ll</w>
ain t
ach eon</w>
ac le</w>
Un iversity</w>
Par t▁y</w>
3 0
▁s or▁ry</w>
▁prev enting</w>
▁peti tions</w>
▁inj ury</w>
▁fl av
▁f ever</w>
▁certific ates</w>
▁cal c
▁ba▁ sed</w>
▁ass istance</w>
▁ac tress</w>
▁K o▁re
▁H w
▁C are</w>
w e▁nt</w>
un d▁
ultur ▁e</w>
sur ▁
se ok</w>
rec ru
per▁ ty</w>
n▁ or</w>
l og
iversi t▁y</w>
increas ▁ed</w>
igh ter</w>
h aps</w>
g ar</w>
coun tries</w>
a▁ ch</w>
ateg y</w>
am ong</w>
M us
▁v it
▁strugg ling</w>
▁restric ted</w>
▁propos als</w>
▁prom p
▁prof essors</w>
▁pr ay</w>
▁off ers</w>
▁mag az
▁inten ded</w>
▁em otional</w>
▁ear th</w>
▁dre w</w>
▁ass oci
▁K o</w>
t ow
s▁ ing
rel▁ ated</w>
pres s
p ool</w>
m m</w>
l▁ aw</w>
g▁ re
fin ite</w>
es tim
eff or▁ts</w>
d ou
d on</w>
b▁et▁ ter</w>
at u▁re</w>
Pro▁ v
O P</w>
▁valu able</w>
▁under ground</w>
▁thous ands</w>
▁supervis e</w>
▁small er</w>
▁sent enced</w>
▁rel ics</w>
▁positi ons</w>
▁ex traordin
▁don ated</w>
▁con grat
▁Gyeongsang nam</w>
▁Agric ulture</w>
▁3 0
tur n</w>
s▁ ur
su▁ b▁
st▁ it
spec ▁
o▁n ly</w>
op eni▁ng</w>
o ol
ep age</w>
en▁ ds</w>
entr ▁al</w>
diffic u▁lt</w>
c amp
bre ak</w>
a▁n ts</w>
ap art
ac ▁h
U .
D irec
▁tex t
▁suppl ies</w>
▁suppl ied</w>
▁succ eeded</w>
▁s qu
▁res idence</w>
▁prom otional</w>
▁per man
▁ordin ances</w>
▁l ab
▁juven ile</w>
▁he▁ ad</w>
▁gener ally</w>
▁fos tering</w>
▁fac ts</w>
▁exten sion</w>
▁br ain</w>
▁bl ind</w>
▁attrac tions</w>
▁aim s</w>
▁M yeong
▁H ae</w>
ye on▁g</w>
ye on
we▁ en</w>
ver sy</w>
under st
tor ▁s</w>
ti s</w>
shi▁ p</w>
s afety</w>
pro f▁it</w>
oll ywood</w>
m ye▁on</w>
ir t</w>
fi▁l m</w>
ea▁ d</w>
chi▁ ef</w>
bec a▁me</w>
b o▁r
ay ers</w>
an▁ other</w>
ak a</w>
W or▁ld</w>
S e▁r
Min▁is▁ try</w>
Democr at▁ic</w>
Busin e▁ss</w>
▁w o▁r
▁w est</w>
▁ven ture</w>
▁th ick</w>
▁ter m
▁ran king</w>
▁piec e</w>
▁m all</w>
▁l ong
▁for ms</w>
▁fac tories</w>
▁fac es</w>
▁er ror</w>
▁acc eler
▁academ y</w>
▁S u</w>
▁K ia</w>
▁Indones ian</w>
▁H o</w>
▁Br idge</w>
▁B re
▁B ang</w>
qu ality</w>
over s</w>
me▁ d
i▁ zed</w>
is t▁
inclu▁ ding</w>
ici ans</w>
he▁ al
h aus
g lob▁al</w>
g ather
fl o▁or</w>
e▁c ts</w>
en tion</w>
en e▁ss</w>
e very</w>
dom▁ es
con du▁
ay ment</w>
angh ai</w>
J▁ ap
&▁ apos▁;s</w>
▁w ild</w>
▁th▁ ere</w>
▁pre ven
▁o r▁
▁instruc tors</w>
▁he▁ ld</w>
▁f ro
▁cancell ation</w>
▁acqu isition</w>
▁Reg ulations</w>
▁M un
▁Con trol</w>
▁Comp anies</w>
▁2 5
y a▁ng</w>
w are</w>
v ar▁
ro l</w>
res sion</w>
rel ation
on ze</w>
ha▁ v▁e</w>
grow th</w>
fi el
e▁c t▁ed</w>
ew or
ed estr
e ul</w>
com par
ch ild</w>
c ou
an c▁ed</w>
a e▁
T ai
M e▁
K i</w>
B us
Artic▁ l▁e</w>
▁w o▁uld</w>
▁st om
▁st ands</w>
▁sh el
▁reg ularly</w>
▁par ks</w>
▁j um
▁custom s</w>
▁cont ained</w>
▁U. S.-
▁S orry</w>
▁S ol
▁Comp etition</w>
▁B ae</w>
▁A g
▁4 00</w>
▁3 ,000</w>
▁ ll</w>
u▁ ed</w>
ur b▁an</w>
rec ent▁ly</w>
ous ness</w>
ot ten
m ob
ion a▁l</w>
in▁ g
int egr
id en▁t</w>
exper i▁
a▁ tio▁ns</w>
an im
ac ti▁ve</w>
Pro▁ vince</w>
C l
&a▁po▁s ;
▁vi▁ sit</w>
▁vis its</w>
▁t yphoon</w>
▁rem oved</w>
▁p ill
▁innov ative</w>
▁gre en
▁extraordin ary</w>
▁enj oying</w>
▁diagnos is</w>
▁chann els</w>
▁Yeong am</w>
▁M ean
▁Ge un</w>
▁2 ,000</w>
w anese</w>
ul ▁es</w>
t w▁
si b▁
pri▁ ce</w>
m▁ ed
me th
ir ty</w>
il ding</w>
for ▁e</w>
et▁ y</w>
e ive</w>
duc es</w>
ch airpers▁on</w>
al▁ ity</w>
aff airs</w>
P en
H ead
G erm
Develop me▁nt</w>
C T</w>
▁w as
▁var i
▁ser iously</w>
▁s ix
▁rem ove</w>
▁rec ession</w>
▁parliam entary</w>
▁l i▁
▁judg ed</w>
▁inten sif
▁hel p
▁harm ony</w>
▁for tress</w>
▁for t
▁exten d</w>
▁diplom atic</w>
▁cont ain</w>
▁c o▁
▁3 3</w>
tr ip</w>
techn ology</w>
serv ices</w>
rev eal▁ed</w>
represent ati▁ve</w>
oc ol
m ulti</w>
j▁ oy</w>
i▁ tion</w>
issi ons</w>
is su▁
irc raft</w>
ild▁ ren</w>
e▁ p
environ me▁nt</w>
employ me▁nt</w>
at▁ ing</w>
at in▁g</w>
al l▁ed</w>
Y oo</w>
▁see king</w>
▁s ell
▁pass port</w>
▁n ote</w>
▁man d
▁hop ed</w>
▁go▁ in▁g</w>
▁gir ls</w>
▁cons titu
▁c ▁
▁b ear</w>
▁analy ze</w>
▁alleg ations</w>
▁Z one</w>
▁W ith
▁Par tic
▁Mongol ia</w>
▁M otors</w>
▁L ater</w>
u▁ ry</w>
un i
tu▁ al</w>
ti ll</w>
tac t</w>
pl us</w>
iver s</w>
id er</w>
gu es</w>
er ate</w>
ea▁ t</w>
d om
comm unity</w>
a▁ in
at h▁
S un
Gang nam</w>
En viron
Am er
&▁ a▁
▁w aves</w>
▁vis ion</w>
▁tow ards</w>
▁ter r
▁strength ened</w>
▁ship ment</w>
▁decl ar
▁ch urches</w>
▁categ ory</w>
▁Ital y</w>
▁Gang dong</w>
▁Ac ts</w>
w om▁en</w>
t▁ ric
tre at
t o▁ry</w>
sti▁ ll</w>
ro▁ w
reg ul▁ar</w>
r ights</w>
p▁ ar▁
pre▁ s
ow ned</w>
ob ong</w>
n ation
mon ths</w>
m i▁n</w>
igh ti▁ng</w>
id▁ ent</w>
i e▁n
e▁ ad</w>
ear ▁s</w>
dis t
cre te</w>
bui▁l t</w>
av ed</w>
at▁ ive</w>
K i▁ng</w>
2 5
▁th▁ ink</w>
▁prov ision</w>
▁hydro gen</w>
▁er ▁e</w>
▁el ements</w>
▁dist ingu
▁d or
▁col orful</w>
▁charg ed</w>
▁ch osen</w>
▁b ar</w>
▁appro ach</w>
▁aband oned</w>
▁Taek wondo</w>
▁Pro t
▁M ad
▁Egyp t</w>
▁Ear lier</w>
we▁ ek</w>
vill a▁ge</w>
s▁ ue</w>
s▁ ix</w>
s ett
play ▁ed</w>
p i▁c
oun ▁d</w>
och ang</w>
m at▁
l on▁g</w>
k et
k es</w>
f air</w>
es▁ ted</w>
eav y</w>
b or</w>
a▁s k</w>
ari ffs</w>
an ches</w>
al one</w>
al ities</w>
L i▁
Gen er▁al</w>
G r
. 5
. 0
&▁apo▁s ;t</w>
▁wh e▁n</w>
▁util ization</w>
▁sen iors</w>
▁sc ulp
▁ris en</w>
▁rea c
▁princip al</w>
▁pen alty</w>
▁every day</w>
▁el ev
▁doc um
▁dis asters</w>
▁d ▁
▁cre d
▁con clusion</w>
▁collap sed</w>
▁child birth</w>
▁Partic ularly</w>
▁P sy</w>
▁M od
▁M ajor</w>
▁I D</w>
▁Gre at</w>
os ing</w>
organiz ▁ed</w>
on ▁ed</w>
int▁ er▁
inc re▁
in formation</w>
e un
d es▁
cl ock</w>
c an
be▁t we▁en</w>
b udg▁et</w>
a▁r ge</w>
T C</w>
Kor ea▁n</w>
201 6</w>
▁trad ition</w>
▁sup posed</w>
▁s p▁
▁s ex
▁r om
▁num erous</w>
▁inv oice</w>
▁hund reds</w>
▁fun ding</w>
▁c ou▁ld</w>
▁b odies</w>
▁b io</w>
▁Th ursday</w>
▁Chang won</w>
y▁ o</w>
w er</w>
u ff
re ti
re p▁
r ice</w>
over se▁as</w>
larg e▁st</w>
investig ati▁on</w>
in ated</w>
g▁ es</w>
g am
ful▁ ly</w>
e▁x p
em y</w>
eep er</w>
do▁ esn</w>
diff▁er ent</w>
ci t▁
at o▁ry</w>
as ingly</w>
an aly
ai▁ r</w>
adminis tr▁
Sch o▁ol</w>
In t
B l
9 8</w>
3 4</w>
0 ,0▁00</w>
&▁apos▁ ;t</w>
▁techn iques</w>
▁st y
▁st eel</w>
▁sol o</w>
▁produc ing</w>
▁pat terns</w>
▁neigh bors</w>
▁h idden</w>
▁h an
▁gu est</w>
▁f are</w>
▁ex actly</w>
▁Sp ain</w>
▁Mean while</w>
tra▁ de</w>
s▁ erv
st ro▁ng</w>
st an</w>
s per
s ev
pr▁ il</w>
prov i▁ncial</w>
pr ice</w>
pa▁ st</w>
our c▁es</w>
or gan
o il</w>
m▁ er</w>
mak ▁e</w>
investig ation</w>
gu ar
g ent
e▁nd ly</w>
ex chang
ef or</w>
ea sy</w>
e the▁r</w>
c ean</w>
b oth</w>
b es</w>
K ang</w>
I sl
Govern ▁ment</w>
Ch o</w>
C on▁
,0 0▁0</w>
▁un known</w>
▁un expected</w>
▁tur ns</w>
▁th i▁nk</w>
▁supervis or</w>
▁succ eed</w>
▁rest ore</w>
▁pre cious</w>
▁c ited</w>
▁ac tions</w>
▁a r▁
▁O b
▁Jeoll a</w>
▁J ob</w>
▁Iran ian</w>
▁Ar my</w>
y▁ oung</w>
s▁ ia</w>
produc ti▁on</w>
pop ul▁
p oll
l▁ s</w>
l ey</w>
i e▁nce</w>
h ib▁
ex ec
es th
dis ab
b▁ efo▁re</w>
b ased</w>
al▁ ls</w>
ad v▁
S un</w>
P res
C▁ enter</w>
3 6</w>
▁writ er</w>
▁w ood</w>
▁tr ends</w>
▁system atic</w>
▁rec ording</w>
▁j us
▁fru its</w>
▁fe et</w>
▁f it</w>
▁Serv ices</w>
▁Sen ior</w>
▁M aybe</w>
▁L ifelong</w>
▁Is ra
ur ▁e</w>
un ar</w>
sum mit</w>
ph ot
oo ki▁ng</w>
it e▁d</w>
is ti▁ng</w>
in▁ ess</w>
in qu
in come</w>
ign ation</w>
h a▁rd</w>
f il▁
et▁ ing</w>
eat edly</w>
des i▁gn</w>
depart me▁nt</w>
c▁ al</w>
c e▁s</w>
ar ound</w>
administr ation</w>
Y oon</w>
V ice</w>
S h▁in</w>
Je oll
E stablis
C up</w>
2▁ nd</w>
▁log istics</w>
▁let ters</w>
▁im port</w>
▁ill eg
▁favor able</w>
▁en ters</w>
▁deep ly</w>
▁ch ron
▁c ust
▁bre ad</w>
▁at trib
▁ab sol
▁a ircraft</w>
▁W o
▁V is
▁Pas tor</w>
▁L aw
▁G ye
▁B ur
▁5 G</w>
te▁ nd</w>
s▁ afety</w>
p .m.</w>
m▁ en</w>
ll ing</w>
k er
iv alent</w>
estab li▁
enter ▁ed</w>
el e</w>
diff▁ ic▁
cl as
c a▁r
c ame</w>
b▁ ig</w>
b▁ as
ax y</w>
at▁ or</w>
aff ▁ic</w>
2 7
▁win s</w>
▁s ustain
▁ind oor</w>
▁ha v▁e</w>
▁c elebrities</w>
▁a▁ nd</w>
▁Tai wanese</w>
▁Ta x</w>
▁T or
▁S elf</w>
▁S audi</w>
▁N ews</w>
▁M er
▁F ive</w>
▁En ergy</w>
▁C ustom
▁5 2</w>
t▁ ions</w>
tric ▁t</w>
tr al</w>
su ff
reg ion</w>
pr▁ og
pers o▁ns</w>
par k</w>
o▁ ve</w>
ou ths</w>
on▁ d</w>
od es</w>
m ind</w>
lo▁ ok</w>
la▁ ted</w>
j u▁ng</w>
iz ▁ation</w>
fort unately</w>
e▁ ri
educ ▁ation</w>
d ney</w>
c en▁
bu i▁
am ber</w>
ag ram</w>
D A
▁t ariffs</w>
▁re views</w>
▁r ally</w>
▁qual ification</w>
▁legisl ation</w>
▁l y
▁hom etown</w>
▁dem ands</w>
▁civ ilian</w>
▁P or
▁L ibrary</w>
▁K imchi</w>
▁Inves tment</w>
▁Hu awei</w>
▁Eng land</w>
▁Des ign</w>
▁A ward</w>
wor kers</w>
wit ter</w>
ugg age</w>
t▁r y▁ing</w>
tog eth▁er</w>
tak i▁ng</w>
s un▁g</w>
s ex
r▁ es▁
res ear
ow ad
ou p</w>
n ings</w>
m▁ en▁t</w>
j ak</w>
h ans
gr and
e▁n sive</w>
ci a▁l</w>
c all</w>
b oo▁
a▁n d
au gh</w>
as sed</w>
armaceu tical</w>
Aff ai▁rs</w>
201 7</w>
▁work place</w>
▁u k</w>
▁st ops</w>
▁rem arks</w>
▁new sletter</w>
▁n ob
▁n eck</w>
▁institu tional</w>
▁eng age</w>
▁collap se</w>
▁cl oud</w>
▁br anches</w>
▁b ▁
▁achiev ements</w>
▁Th eater</w>
▁Ch e
vi ro▁n
t▁ le</w>
pen s
m ▁s</w>
j oy</w>
ir s</w>
ilos op
i o▁us</w>
h wan</w>
f ig
ewor thy</w>
ea ting</w>
e ve</w>
dep ar▁
ang yo</w>
Kor▁ ean</w>
F r▁
▁w i▁th</w>
▁startu ps</w>
▁so il</w>
▁s ources</w>
▁rain y</w>
▁prefer ential</w>
▁nerv ous</w>
▁med iation</w>
▁los ses</w>
▁gradu ate</w>
▁fre edom</w>
▁clos ing</w>
▁anx iety</w>
z one</w>
v est</w>
t▁ ake</w>
tiv ▁
op ol
oo▁ ls</w>
on to</w>
m et</w>
l e▁d</w>
k ish</w>
jo i▁nt</w>
is try</w>
h▁ n
f ol
ent um</w>
e w▁
devel▁ op</w>
ap prov
an▁ s
ag er</w>
L e▁e</w>
▁viol ations</w>
▁uni form</w>
▁separ ated</w>
▁schol ars</w>
▁publ ication</w>
▁pos ts</w>
▁mon itor</w>
▁m ot
▁instruc tor</w>
▁inst alling</w>
▁identif ication</w>
▁hea ting</w>
▁g r▁
▁facilit ate</w>
▁e ast</w>
▁differ enti
▁conven ed</w>
▁bal anced</w>
▁Yong san</w>
▁P yongyang</w>
▁L ondon</w>
▁K wang</w>
▁Gyeongsang buk</w>
▁Chung cheong</w>
▁C ap
▁2 9th</w>
w a▁nt</w>
urr ence</w>
tr ib▁
s▁ ch
stor es</w>
so▁ on</w>
se▁ e</w>
s i▁ng</w>
owad ays</w>
ond ary</w>
n ation</w>
k▁ et</w>
j oin
i▁ ded</w>
ind ep
in te▁
ig er
ic ate</w>
ec ▁t</w>
doc um
curr ent▁ly</w>
ci en▁ce</w>
and▁ is</w>
air ▁
aff ▁
Su w▁on</w>
S T</w>
Direc t▁or</w>
C▁ ity</w>
A▁r ti▁cle</w>
9 5</w>
3▁ 0</w>
▁vis ible</w>
▁tom b</w>
▁sugg ests</w>
▁sol ar</w>
▁slow ly</w>
▁r iding</w>
▁prom ise</w>
▁part ner</w>
▁over whel
▁m icro
▁incen tives</w>
▁harm ful</w>
▁forec ast</w>
▁coll ea
▁calc ulation</w>
▁Wh o</w>
▁Th ough</w>
▁Sh anghai</w>
▁M anch
▁D et
▁Asi ana</w>
▁5 0,000</w>
▁3 6</w>
▁200 6</w>
▁19 4
y▁ u</w>
wor▁ ks</w>
t▁ en
tw are</w>
se qu
s ociety</w>
rel atio▁ns</w>
p▁ port</w>
pro gr
pl aces</w>
pen ses</w>
ow i▁ng</w>
m▁ et</w>
mut and▁is</w>
mo d▁
m un</w>
lik e▁ly</w>
l o</w>
kn owled
j▁ ae</w>
h el▁
com p▁l
cas ▁es</w>
at eral</w>
app o
S S</w>
O ffice</w>
J u▁ne</w>
J une</w>
H er
A s</w>
▁suspic ion</w>
▁re wards</w>
▁prefer entially</w>
▁perc ent
▁n omin
▁mak eup</w>
▁lawmak er</w>
▁identif y</w>
▁h un
▁gir lfriend</w>
▁eng ine</w>
▁c ute</w>
▁adjus ted</w>
▁achiev ement</w>
▁Sw ed
▁St ore</w>
▁H ollywood</w>
▁Administr ative</w>
▁ ers</w>
wor ds</w>
te▁ e</w>
tea▁ m</w>
t ex
s▁ ay
su▁p po▁rt</w>
ous▁ ly</w>
ot ten</w>
mov ▁
m ove</w>
l e▁s</w>
iber▁ ty</w>
h eon</w>
fu▁ ll</w>
fl ed
e▁x p▁
end ship</w>
em▁ ber</w>
empl ary</w>
co in</w>
ch on</w>
c end
ann er</w>
ampion ship</w>
ad ong</w>
N ati▁onal</w>
K y
In ves
&apos; m</w>
▁y ea▁r</w>
▁t ight</w>
▁qu iet</w>
▁prov is
▁prohib ited</w>
▁pat tern</w>
▁memb ership</w>
▁l ink</w>
▁grat eful</w>
▁gener ated</w>
▁exam ples</w>
▁comp ar
▁b u▁t</w>
▁K T</w>
▁H a
▁Bo ard</w>
▁Air lines</w>
wi▁ n
w al
v o
u▁n der</w>
t▁h ▁e</w>
t▁ im
rea▁ dy</w>
n u▁
mak er</w>
l▁ ing</w>
i▁n gs</w>
i▁ r</w>
in▁ al</w>
il▁ ls</w>
ic op
hib ition</w>
h yeon</w>
g▁ row
grad u
g ien
e▁c ted</w>
e▁ ll</w>
er ati▁on</w>
eep s</w>
ec e</w>
del iver
con sec
b y
ach iev
V s</w>
Un iversit▁y</w>
N▁ o.</w>
G▁ u</w>
G a▁ng
E uro
D ae
▁str ike</w>
▁sensi tive</w>
▁pr ide</w>
▁n oted</w>
▁mas sive</w>
▁incre asingly</w>
▁fi res</w>
▁equ ivalent</w>
▁dis position</w>
▁des k</w>
▁dep ends</w>
▁cro ss
▁crack down</w>
▁conf ident</w>
▁char t</w>
▁celebr ate</w>
▁accoun ted</w>
▁Sih eung</w>
▁R ed</w>
▁Pri ze</w>
▁L ord</w>
▁Ch oe</w>
▁&a▁ pos;</w>
u ven
t▁ e▁d</w>
rel eas▁ed</w>
r u▁n
r ank
off▁ icial</w>
i▁l ity</w>
il▁l ion</w>
ic▁ y</w>
eti n</w>
en▁ t
enc our
e on▁g</w>
e in</w>
c▁ er
cur re▁nt</w>
a▁ rou▁nd</w>
aut om
ail ▁ed</w>
agre ement</w>
J eong</w>
C ultu▁re</w>
▁repres ent</w>
▁in sufficient</w>
▁hom epage</w>
▁f ighting</w>
▁ex it</w>
▁dis pos
▁con g
▁architec ture</w>
▁app eal</w>
▁T w
▁S im
▁R ob
▁M y
▁M ok
▁Indi an</w>
▁I m</w>
▁Gyeong nam</w>
▁20 20</w>
w▁ ard</w>
wh a▁t</w>
um mer</w>
ual ties</w>
ti on▁al</w>
st ance</w>
si l</w>
ro o▁m</w>
pre ven
pol itan</w>
offic ials</w>
m oun
l▁ ik
it ter</w>
der ▁ly</w>
compl▁ ex</w>
S i</w>
Gyeon▁g gi</w>
201 9</w>
▁week ends</w>
▁w ▁h
▁sugg est</w>
▁sl eeping</w>
▁ref used</w>
▁pr aised</w>
▁oppos ite</w>
▁n ecess
▁mon ument</w>
▁main taining</w>
▁m ent
▁im position</w>
▁fin als</w>
▁f ake</w>
▁controver sial</w>
▁consult ative</w>
▁com fort</w>
▁c ab
▁answ ers</w>
▁Th us</w>
▁D omestic</w>
▁: :</w>
y ber</w>
tr av▁
st▁ ar
st ream</w>
reas on
pro gram</w>
o▁r d</w>
over ▁
ou▁ ris
n ae</w>
m▁ us
j o▁ng</w>
ist ent</w>
ir ▁ed</w>
int ell
in ning</w>
h▁av ▁e</w>
exp a▁nd</w>
emerg en▁cy</w>
ed▁ uc
ear ning</w>
d ir▁ec
c▁ ase</w>
ches tra</w>
bus▁ in
a▁n s
W omen</w>
S ong
P a▁
Ju▁ ly</w>
F A</w>
D em
▁u l</w>
▁ship s</w>
▁percent age</w>
▁p avilion</w>
▁o d
▁k ids</w>
▁ir on</w>
▁indic ators</w>
▁f ▁
▁em otions</w>
▁deliber ated</w>
▁bre at
▁X i</w>
▁Mexic an</w>
▁Ex pec
▁ on</w>
us ted</w>
te▁ ch</w>
s▁ un</w>
st e▁
sp a▁ce</w>
res sing</w>
prescri b▁ed</w>
poin ted</w>
op en▁ed</w>
n ic</w>
lea d▁er</w>
inspec ti▁on</w>
in c▁lud
e▁as y</w>
exper ▁ts</w>
emb e▁r</w>
e t▁s</w>
draw i▁ng</w>
diff▁ic▁ ult</w>
ch airper
art a</w>
ap es</w>
am ps</w>
Y eon
M y</w>
Gang won</w>
Comm▁ it▁tee</w>
▁tr an
▁t end</w>
▁semin ar</w>
▁rem in
▁r ating</w>
▁pr o</w>
▁not eworthy</w>
▁min or</w>
▁mat ches</w>
▁m igr
▁invol ving</w>
▁gu ard</w>
▁g all
▁franch ise</w>
▁f ewer</w>
▁coun cil
▁cons ensus</w>
▁con fron
▁comp on
▁character istic</w>
▁c ir
▁bo oth</w>
▁bir ds</w>
▁attrac tion</w>
▁ab nor
▁Afric a</w>
u t▁ed</w>
te▁ ll</w>
ten si▁on</w>
su▁b▁ pa▁r
ou▁r s</w>
os a</w>
o thers</w>
min utes</w>
ic a</w>
i king</w>
hy th
ge▁t ting</w>
g n</w>
fe▁ el</w>
facil i▁ties</w>
f i▁ne</w>
f a▁ce</w>
excell e▁nt</w>
e over</w>
den uclear
c▁ ar</w>
co▁m p▁
coun t▁ry</w>
com▁ m
cl aim
be t▁w
azak h
ap▁ o▁s
an el</w>
air ▁s</w>
F u▁nd</w>
D iv
&a▁p▁os ;m</w>
▁tim ing</w>
▁sim ultan
▁rep eatedly</w>
▁in ner</w>
▁en ds</w>
▁ear ned</w>
▁d eal
▁cou ples</w>
▁competi tions</w>
▁cl ou
▁b ad
▁al ▁
▁T reas
▁T ake</w>
▁R eal</w>
▁P omp
us hed</w>
ur t</w>
un c
st u▁
si▁ ble</w>
re▁ al</w>
pre vi
o▁ r▁
ov el</w>
o ked</w>
in ery</w>
im al</w>
ic it</w>
i e▁d</w>
fr aid</w>
emb▁ ly</w>
e ig▁ht</w>
de ok</w>
ch ang</w>
b▁ e▁
as c
ans eong</w>
A ▁n
3 8</w>
3 3</w>
20▁ 0
▁urg ently</w>
▁s an
▁res ulting</w>
▁rea lis
▁re un
▁pre viously</w>
▁pr ayer</w>
▁ph ones</w>
▁pat ent</w>
▁p edestr
▁mea su
▁consider able</w>
▁co ol
▁bur ied</w>
▁ass ist</w>
▁any where</w>
▁Sh ould</w>
▁H on
▁E X
▁Dong daemun</w>
▁Co ach</w>
v a</w>
ut ation</w>
us tries</w>
ul o</w>
t▁ h▁
t led</w>
re▁ qu
res ul▁ts</w>
prov id▁ed</w>
per ly</w>
p ir
organiz ati▁on</w>
or ation</w>
num ber</w>
n ews</w>
mo▁ ve</w>
ing ton</w>
ill eg
ijeong bu</w>
fri e▁ndly</w>
fam iliar</w>
en ses</w>
el ec▁
co▁ ll
b▁ us</w>
burs ement</w>
avo id
G an▁g
B ar
▁wor ship</w>
▁tour nament</w>
▁tal ented</w>
▁spec ies</w>
▁shou lder</w>
▁se ver
▁re in
▁por tion</w>
▁mis sed</w>
▁mess ages</w>
▁mark ed</w>
▁inten se</w>
▁help ful</w>
▁h ole</w>
▁estim ate</w>
▁d ancing</w>
▁coun termeasures</w>
▁attrac tive</w>
▁S il
▁Pur suant</w>
▁M ac
▁H am
▁B i
▁3 8</w>
w it▁h
un▁ ity</w>
th w
su e</w>
sti t▁
rec ted</w>
re ▁e</w>
p▁er son</w>
ou▁r t</w>
os c
ol es</w>
l angu
l ab▁or</w>
j▁ ust</w>
impl ement
imb ap</w>
ig g
hos t▁ed</w>
ge▁n eral</w>
f▁or m
f utu▁re</w>
es pec
elih ood</w>
cre a▁te</w>
cons ul
comm uni▁ty</w>
cer tif
c a▁ll</w>
a▁r ed</w>
a▁ t▁e</w>
aw a</w>
au g▁ht</w>
ak ▁e</w>
ag a▁in</w>
S elf</w>
K▁or e▁a</w>
Jap▁ anese</w>
H was
G or
A N</w>
▁w estern</w>
▁t astes</w>
▁s essions</w>
▁replac ement</w>
▁r oll
▁pregn ant</w>
▁por trait</w>
▁pl▁ ace</w>
▁pl ate</w>
▁m o▁n
▁m otor</w>
▁kn owing</w>
▁instr uments</w>
▁inf ec
▁g am
▁declar ation</w>
▁cre ates</w>
▁contain er</w>
▁cal m</w>
▁c alligrap
▁b ul
▁W ol
▁U pon</w>
▁S al
▁L ake</w>
▁H ome</w>
▁F ree</w>
▁3 0s</w>
▁ ti▁on</w>
u▁ ction</w>
ul ▁ed</w>
s▁tr ong</w>
sh or
sh ip
sc▁h ool</w>
ri▁ se</w>
pr▁ oc
proc e▁ss</w>
por ▁t
o▁ d
or ds</w>
me▁d ical</w>
m il
l▁i k▁
iz ▁e</w>
it ability</w>
is ▁h
d an▁ce</w>
c▁ o
co oper▁
al i▁ty</w>
Del iberati▁on</w>
C▁h o</w>
Ch ang</w>
,5 00</w>
▁w▁ ith</w>
▁wea pons</w>
▁tim ▁e</w>
▁st ages</w>
▁slow down</w>
▁rout es</w>
▁r ace</w>
▁pos s
▁p agoda</w>
▁mon k</w>
▁manufactur ers</w>
▁lim itations</w>
▁k ey
▁h asn</w>
▁compl aint</w>
▁bur d
▁ar tif
▁Pol icy</w>
▁Ko▁re a</w>
▁All ow
▁5 ,000</w>
▁20 ,000</w>
▁11 9</w>
tor ney</w>
sa▁ ng</w>
pos t</w>
pa▁ y
o▁r d▁ing</w>
oo▁ ds</w>
od aemun</w>
m i▁s
m ess
li ance</w>
le▁ ad
k l
industr i▁al</w>
in te▁r
ici ary</w>
i ol
hop ▁e</w>
f▁ in
f ri▁
d ings</w>
d epar
comp et▁
b ong</w>
anc e▁s</w>
al▁ ue</w>
Serv i▁ce</w>
S ou
En glish</w>
D ep
Ch eon
A p
▁revital ization</w>
▁rea p
▁pen insula</w>
▁me ets</w>
▁hosp ital
▁fre e
▁for get</w>
▁ex haus
▁dr inks</w>
▁don ations</w>
▁dis sem
▁const ant</w>
▁chea per</w>
▁an ti
▁T uesday</w>
▁Sh im</w>
▁N et
▁In nov
▁Fr amework</w>
▁20 0,000</w>
▁ me▁nt</w>
um ber</w>
u til
tion ally</w>
s▁ er▁
s in</w>
ro ▁up</w>
ref e▁rr▁ed</w>
r al</w>
progra▁ ms</w>
per▁ sonal</w>
on▁ gs</w>
m its</w>
l▁ iv
j u▁
inform▁ ation</w>
id▁ eo</w>
ic als</w>
i o▁n
h ak</w>
f ee▁
direc t▁ly</w>
d one</w>
c▁ ar
con si▁
K▁ RW</w>
Ce▁n ter</w>
▁w ill
▁t elecomm
▁prin ciples</w>
▁practic es</w>
▁politici ans</w>
▁med al</w>
▁k een</w>
▁i ▁t</w>
▁i gn
▁ex emplary</w>
▁eg gs</w>
▁d r▁
▁chron ic</w>
▁ass a
▁abs ence</w>
▁Yeon cheon</w>
▁Sm art</w>
▁S ociety</w>
▁Particip ants</w>
▁M yeong</w>
▁Comm unity</w>
▁C amp</w>
▁ 0
y o▁ng</w>
un ication</w>
sub ▁
s por▁ts</w>
rou g▁h</w>
oth e▁r</w>
os ted</w>
or g▁
om e▁n</w>
oc c▁
mor ning</w>
le▁ ading</w>
l in</w>
ky ▁un</w>
i▁n g
incl▁ud i▁ng</w>
i an
hist ory</w>
ey es</w>
e e▁d</w>
d ea▁
cl ▁e</w>
be▁ li
bec om
a▁m a</w>
a▁ tion▁s</w>
a▁ rea</w>
any more</w>
ak ed</w>
N am</w>
Gov▁ern or</w>
7 5</w>
3 00</w>
▁tom bs</w>
▁sc ores</w>
▁refun ded</w>
▁n av
▁m ine</w>
▁law yer</w>
▁l e▁
▁inten sive</w>
▁doc tors</w>
▁con crete</w>
▁c ook</w>
▁b r▁
▁am azing</w>
▁acqu aint
▁J ohn</w>
▁G apyeong</w>
▁For est</w>
▁ ju</w>
ye ar▁s</w>
ust me▁nt</w>
s▁h ip</w>
sib ilities</w>
sec ret
s a▁n</w>
re po▁rt</w>
p▁ ol▁
profess▁ or</w>
po▁ s▁
partic▁ ip▁
or ▁e</w>
m uc▁h</w>
i▁ als</w>
in ent</w>
i us</w>
gre at</w>
f oo▁d</w>
f ine</w>
f em
ex chan▁ge</w>
en n
compan ie▁s</w>
c ost</w>
b ok
b al</w>
ar ely</w>
an ish</w>
al k
al ism</w>
administr ati▁on</w>
accord i▁ng</w>
a ul</w>
Se▁ oul</w>
Intern ation▁al</w>
Ch airm▁an</w>
B r▁
▁work shop</w>
▁sc ri
▁sa ved</w>
▁legisl ative</w>
▁fac ed</w>
▁f ab
▁exemp ted</w>
▁dem entia</w>
▁decl ared</w>
▁coun ter</w>
▁cor ruption</w>
▁busin ess
▁bat tery</w>
▁Tr aining</w>
▁N o
▁C amp
▁A wards</w>
▁3 0,000</w>
y in▁g</w>
w▁h ile</w>
ut▁ es</w>
u ating</w>
t▁ om
t m▁ent</w>
s▁ e
se o▁k</w>
sal es</w>
s l▁
q▁ ue</w>
pr▁ ob
p re</w>
p oor</w>
p h▁
o▁ und</w>
o▁ ok</w>
otten ham</w>
on ight</w>
olo▁ g
memb er▁s</w>
lik ely</w>
k g</w>
ios ity</w>
h▁ wa</w>
h ou
gr ade</w>
et o</w>
chang ed</w>
c ur▁
Y ang</w>
R ev
N o.</w>
L iber▁ty</w>
▁ti▁ me</w>
▁short age</w>
▁reg ret</w>
▁pre d
▁minim ize</w>
▁lot us</w>
▁kil om
▁dis coun
▁democr atic</w>
▁deg ree</w>
▁cas ualties</w>
▁acc es
▁M an</w>
▁J ud
▁Expec tations</w>
▁Cri tics</w>
▁2 4
wo▁r ld</w>
w ear</w>
v alu
us t▁ry</w>
ur ies</w>
u p▁
t▁ ies</w>
ti▁v al</w>
th rou▁
s▁ ity</w>
okes man</w>
m▁ ental</w>
m etropolit▁an</w>
law mak
k a</w>
ik es</w>
ic k▁
g l▁
e▁ um</w>
ev en▁ts</w>
en er▁gy</w>
ea▁ ce</w>
d▁ ec
d ev▁
d a▁ta</w>
co▁mp any</w>
coun sel
b▁e fore</w>
b ro▁
b el▁
b ang</w>
at▁ her</w>
an▁ ch</w>
announ c
H eal▁th</w>
20 0▁
▁six th</w>
▁sharehol ders</w>
▁sam ples</w>
▁re ference</w>
▁or ganic</w>
▁mob il
▁jud icial</w>
▁j ustice</w>
▁im pose</w>
▁exchang ed</w>
▁exc ited</w>
▁el imin
▁cons ervation</w>
▁bea t</w>
▁b id
▁appro pri
▁answ ered</w>
▁ad mitted</w>
▁accum ulated</w>
▁St eering</w>
▁H ong
▁19 0
y cles</w>
wo▁r king</w>
we▁l fare</w>
vis it</w>
un ch</w>
uc tu
tw▁ o</w>
tic▁ al</w>
st ep
sit uation</w>
s m▁
rev ital
res p▁
repres ent▁
proc ed
por ter</w>
pop ular</w>
olog ▁y</w>
intern ation▁al</w>
in ations</w>
igh ted</w>
ic a▁l</w>
fr ont</w>
er▁ ation</w>
dr a▁
develop ▁ed</w>
d id</w>
at ri
abil i▁ty</w>
a c</w>
M a▁r
H ee</w>
H all</w>
D irector</w>
▁ver ification</w>
▁un veiled</w>
▁th us</w>
▁sett le</w>
▁pain ted</w>
▁larg ely</w>
▁intellec tual</w>
▁impres sion</w>
▁hand ed</w>
▁gradu ates</w>
▁fr ustr
▁fl u
▁fav or</w>
▁extre m
▁ex istence</w>
▁disp utes</w>
▁dismis s</w>
▁d ign
▁c ast</w>
▁boo m</w>
▁accommod ation</w>
▁Song pa</w>
▁Coll ege</w>
w▁ an▁t</w>
t▁ e▁r</w>
tr av
s ports</w>
re▁ en</w>
r ad
per sons</w>
os un</w>
mit ting</w>
med▁ ia</w>
m i▁l
itt▁ le</w>
in s▁
im medi
h▁er ein
hi▁ gh
h ou▁
g u▁
f requ
evalu ati▁on</w>
dr am
ch eo▁n</w>
b▁ est</w>
Sh in</w>
S ong</w>
P▁ l
Prov▁ inc▁e</w>
N a▁
K▁ or▁
K RW</w>
I T</w>
Associ ati▁on</w>
▁thor ough</w>
▁strateg ic</w>
▁stom ach</w>
▁st ream</w>
▁pour ed</w>
▁p ine</w>
▁man ual</w>
▁low ered</w>
▁hop es</w>
▁hear ts</w>
▁h ike</w>
▁fres h
▁fi re
▁faith fully</w>
▁ex cluding</w>
▁ch ain</w>
▁break fast</w>
▁an ger</w>
▁a im</w>
▁Pen sion</w>
▁Oper ation</w>
▁Da ew
▁Ch ar
you▁ th</w>
w ri
ver ▁y</w>
ti re</w>
st ory</w>
respec tively</w>
p▁l ease</w>
l eep</w>
il ▁ed</w>
h air</w>
go al</w>
e▁n t▁
ev ision</w>
environ ment</w>
en c▁y</w>
co▁m m
bo▁ ok</w>
and al</w>
ai▁ l
ac tion</w>
ac h▁
Sub sid
O h</w>
Ch ris
C o▁n
A sia</w>
&apos; ▁
▁writ ers</w>
▁withdraw al</w>
▁the ory</w>
▁temper atures</w>
▁sen s
▁rum ors</w>
▁refl ects</w>
▁rail way</w>
▁pat ri
▁n ovel</w>
▁l uggage</w>
▁illeg ally</w>
▁h obby</w>
▁dem anded</w>
▁comm endation</w>
▁CC TV</w>
▁Bel g
▁Acc oun
▁6 00</w>
w o▁men</w>
ur ▁al</w>
uc k
t▁h ree</w>
su▁b▁pa▁r agraph</w>
sur ▁e</w>
sp ace</w>
sec uri▁ty</w>
s ter</w>
r in▁g</w>
pl at
par ki▁ng</w>
ocol ate</w>
n oc
n ia</w>
m▁ an
m en
l▁ et</w>
lo▁ w
liv es</w>
it ory</w>
ind epend
h▁ a▁d</w>
hy e</w>
g an</w>
ett e▁r</w>
en▁ ing</w>
em e</w>
eb ack</w>
e z</w>
d▁ y</w>
de▁ f
dem onstr
b en
b ank</w>
az y</w>
ai▁n s</w>
ac ter
S o▁ng</w>
S oo</w>
K ong</w>
8 ▁th</w>
2 6
1 0th</w>
▁v alley</w>
▁us eful</w>
▁suspic ions</w>
▁sc at
▁rev oke</w>
▁r ains</w>
▁pres umed</w>
▁pot tery</w>
▁observ ed</w>
▁neti zens</w>
▁m echan
▁grow s</w>
▁displ ays</w>
▁defin itely</w>
▁conven e</w>
▁aud itor</w>
▁a ired</w>
▁Tur kish</w>
▁Se on
▁L unar</w>
▁D av
▁A be</w>
yang ju</w>
u▁ p
s▁ ol
s ince</w>
po i▁nt</w>
p rel
o▁ ffic
occ up
m aking</w>
import a▁nt</w>
herein a▁fter</w>
ec tors</w>
T alk</w>
Pres▁ ident</w>
P al
O ct
D es
Comm it▁tee</w>
▁wel come</w>
▁uncer tain
▁un familiar</w>
▁serv ing</w>
▁ris ks</w>
▁rep ayment</w>
▁per spective</w>
▁per i
▁ob ject</w>
▁n eve▁r</w>
▁k eeps</w>
▁inter views</w>
▁immigr ants</w>
▁har der</w>
▁har ass
▁h iring</w>
▁fl ood</w>
▁engin eering</w>
▁di al
▁d um
▁coun ter
▁bath room</w>
▁T ea
▁Offic er</w>
▁M unicipal</w>
▁&apo▁s ;▁s</w>
wh▁ ere</w>
ur ▁es</w>
tu s</w>
star ti▁ng</w>
sa▁ y</w>
s pon
ru g</w>
re▁l ated</w>
rece i▁ve</w>
oper at▁ed</w>
me▁ di
mark ets</w>
m u▁
i▁ ef</w>
ic ian</w>
ho▁ l▁d</w>
h app
g rou▁nd</w>
g ov▁ern
facil i▁ty</w>
ev al
eti me</w>
environ ment▁al</w>
de p▁
d a▁
contin▁ ue</w>
conc entr
competi ti▁on</w>
a▁ st
av ▁e</w>
appro priate</w>
ablis hed</w>
a eb
C D</w>
A si▁an</w>
A I</w>
3▁ rd</w>
▁w ouldn</w>
▁see kers</w>
▁reserv ed</w>
▁res ource</w>
▁reg ime</w>
▁promp tly</w>
▁produc ers</w>
▁per mit</w>
▁negl igence</w>
▁mov es</w>
▁fr▁ ont</w>
▁d ress</w>
▁concer ts</w>
▁cap abilities</w>
▁bre aking</w>
▁app rais
▁U K</w>
▁T witter</w>
▁S ite</w>
▁N atur
▁H ak</w>
▁D em
▁B ong
▁Ang el
▁An yang</w>
un ds</w>
u is
s▁h oul▁d</w>
s▁ h▁
sy▁st em</w>
st▁ op</w>
sh op
s uring</w>
s tic
s old</w>
s een</w>
r▁ ate</w>
re▁ la▁ted</w>
p op▁
o▁ to</w>
os es</w>
li▁ ve</w>
in sur
ilit ation</w>
h▁ igh
h ap▁
g▁ ot</w>
e▁ ls</w>
e▁ er</w>
ey ed</w>
eng er</w>
enc ement</w>
de ung
c▁h a▁rge</w>
contr▁ ol</w>
ch em
at ings</w>
appear ▁ed</w>
amb oo</w>
am en</w>
Un it▁ed</w>
T our
R ec
E ducation</w>
Coun ▁
# 9
▁tri ps</w>
▁tempor arily</w>
▁su fficient</w>
▁strugg le</w>
▁step s</w>
▁r igh▁t</w>
▁preserv ed</w>
▁neighbor ing</w>
▁man power</w>
▁investig ated</w>
▁equ ality</w>
▁earn ings</w>
▁comm encement</w>
▁boo ths</w>
▁b oss</w>
▁ar ms</w>
▁M u
▁M apo</w>
▁Gyeong ju</w>
▁Gu ar
▁Allow ances</w>
▁1 .5</w>
w ent</w>
v ices</w>
um i</w>
say in▁g</w>
s of
resid enti▁al</w>
pris e</w>
ou g▁ht</w>
oh ang</w>
ma▁ t
intern at▁ional</w>
h▁ ye</w>
h um▁an</w>
f it</w>
em e▁n
driv i▁ng</w>
di re▁
c▁h eon</w>
b udg
b ar
ac he</w>
a it</w>
Ord i▁n
Je ju</w>
E conom
C or
B u▁
A pril</w>
2 4
&▁ap▁os ;t</w>
&▁ap▁os ;</w>
▁y e▁ar</w>
▁vill agers</w>
▁util izing</w>
▁th▁ e▁re</w>
▁su gar</w>
▁st ones</w>
▁rev eal</w>
▁reloc ation</w>
▁public ity</w>
▁or▁ der</w>
▁notic eable</w>
▁l ending</w>
▁fea sibility</w>
▁expec tation</w>
▁cir cles</w>
▁R en
▁K oo</w>
▁In spec
▁Bl ack</w>
y▁ ears</w>
trad it▁ional</w>
th▁ ere</w>
tem por
sm oki▁ng</w>
se▁ en</w>
s o▁ng</w>
r▁ em
ri ble</w>
prec ed
ou▁ ng</w>
l er</w>
k n▁
is ▁t</w>
in▁ d</w>
introduc ▁ed</w>
inst all
ific ati▁on</w>
id e▁d</w>
ic e▁s</w>
h ours</w>
gre▁ en</w>
fr▁ o▁m</w>
f oun
es tic
es s▁ed</w>
en a</w>
dom▁es tic</w>
citi zens</w>
c ap▁
bro ad
b its</w>
as ti▁ng</w>
am ou▁nt</w>
ag eous</w>
aff ili
M al
H▁ an</w>
&a▁ po▁s▁
▁underst ood</w>
▁un ▁
▁sustain able</w>
▁subsid i
▁sp ots</w>
▁sol ving</w>
▁sal t</w>
▁re jected</w>
▁op posed</w>
▁n ights</w>
▁man ip
▁m oon</w>
▁m i</w>
▁grad uation</w>
▁fl oo
▁expres s
▁communic ations</w>
▁c and
▁c able</w>
▁acqu ired</w>
▁Po cheon</w>
▁Per haps</w>
▁Int egr
▁Ar ab
▁A round</w>
▁3 D</w>
▁3 7</w>
▁2 7
w▁ it▁h</w>
us ▁t</w>
ti▁ n▁g</w>
st a▁te</w>
sit es</w>
resid ent▁s</w>
prac tic
poli▁ tical</w>
oph is
on ers</w>
n ig▁ht</w>
m ly</w>
m illion</w>
lin ▁e</w>
iz za</w>
in▁ cluding</w>
int▁er▁ est</w>
ins truc
h▁erein aft▁er</w>
fled g▁ed</w>
fam ili▁es</w>
f ee</w>
e▁ al
er ci
e y▁
der ful</w>
d ay▁s</w>
ch ar▁
am i</w>
O f▁f
Mar▁ ch</w>
In tern▁
Establis hme▁nt</w>
E lec
D e▁
A ir
9 7</w>
. &apos;</w>
▁wit n
▁th r
▁se ts</w>
▁pro ve</w>
▁pas tor</w>
▁ob jects</w>
▁join ing</w>
▁grand mother</w>
▁f ail</w>
▁exc eeds</w>
▁cons ol
▁compl icated</w>
▁T ottenham</w>
▁T ae
▁B or
y m</w>
u ous</w>
th▁ a▁t</w>
the▁ se</w>
t ech</w>
streng th▁en</w>
r▁ ight</w>
produc ▁ed</w>
ord ers</w>
ol▁ ogy</w>
mi▁ llion</w>
m ad▁e</w>
in et</w>
il i▁
ific ally</w>
ic ▁s</w>
ic ations</w>
fi▁r st</w>
f ew</w>
e▁ ge</w>
end ations</w>
ed ian</w>
d own
d eg
c▁ oun
comm ission
chi▁ ld</w>
c old</w>
c ases</w>
b▁ u▁t</w>
b a▁nd</w>
am ics</w>
ak arta</w>
ad d▁ed</w>
Un ive▁r
T ra▁
R es▁
Gang ▁
E un</w>
D is▁
C ou▁n
C oll
1 5th</w>
&a▁po▁s ;</w>
▁vis ual</w>
▁ver ify</w>
▁thea ters</w>
▁targ ets</w>
▁s ing</w>
▁refl ecting</w>
▁pre ference</w>
▁pl ea
▁perc eption</w>
▁p up
▁ob st
▁mas k</w>
▁l on
▁inform ed</w>
▁hur ts</w>
▁harm on
▁fl at</w>
▁f at</w>
▁every where</w>
▁dor mit
▁distrib ute</w>
▁ch e▁ck</w>
▁c ave</w>
▁b orrow</w>
▁artif acts</w>
▁ag gres
▁Sy dney</w>
▁Sec urities</w>
▁Pri or</w>
▁O ver</w>
▁For ms</w>
▁D ream</w>
wi▁ de</w>
u▁m p</w>
um p
t ude</w>
sh ort</w>
s n
po▁p ular</w>
pl anni▁ng</w>
pe▁op l▁e</w>
os u</w>
k e▁d</w>
in▁ t▁o</w>
in sp
in ema</w>
h our</w>
g▁ ive</w>
gien e</w>
f▁or m</w>
f▁ uture</w>
fam o▁us</w>
ex ▁t</w>
erea ved</w>
des ign</w>
d ig
circ um
caus ▁ed</w>
a▁ ss
at ta▁
ash ington</w>
ac t▁or</w>
V ill
J ang</w>
H ye</w>
C re
▁transl ation</w>
▁st amp</w>
▁s ang</w>
▁ris es</w>
▁rais es</w>
▁pursu an▁t</w>
▁op ponent</w>
▁m arg
▁kilom eters</w>
▁hand led</w>
▁form ation</w>
▁for got</w>
▁for g
▁fil es</w>
▁ex tingu
▁des per
▁conn ecting</w>
▁commemor ate</w>
▁ch eering</w>
▁b en
▁a fraid</w>
▁U ijeongbu</w>
▁Rev iew</w>
▁M ilitary</w>
▁L ove</w>
▁K um
▁J unior</w>
▁Ind ustries</w>
▁Hous ing</w>
▁Ex hibition</w>
▁B ong</w>
▁1 20</w>
▁&q▁u o▁t;</w>
w el▁
u▁ tion</w>
u ff</w>
t▁ oo</w>
ten sion</w>
s▁ oon</w>
st re
s un
ro ads</w>
pur su▁
pro mo
pas sed</w>
partic i▁p
p ag
om e
ne w▁
long ed</w>
l abor</w>
issu es</w>
i el
hist o▁ry</w>
g ok</w>
ey e</w>
expl ain▁ed</w>
expec t
dis app
ch a▁ng
ch all
a▁n n
app ing</w>
an▁ ks</w>
an n▁
al ition</w>
ag ency</w>
S ▁u
S E
P r
Administr ati▁ve</w>
▁ur ged</w>
▁t ot
▁symb ol
▁suspen d</w>
▁subscri ption</w>
▁stor ed</w>
▁spons ored</w>
▁sil ver</w>
▁sec ondary</w>
▁s and
▁prot ected</w>
▁mov ements</w>
▁mo is
▁l ighting</w>
▁im ports</w>
▁fundam ental</w>
▁en shr
▁consult ations</w>
▁c a▁n</w>
▁bur ned</w>
▁amoun ts</w>
▁Se osan</w>
▁S aem
▁S a
▁Fin ally</w>
▁E un
▁E mb
▁Cl an</w>
▁Bu reau</w>
▁3 1st</w>
z y</w>
ul ty</w>
t▁ric t</w>
ti an</w>
ta▁ ek</w>
sp re▁ad</w>
r i▁ng</w>
p▁ ris
provinc ▁e</w>
ov .</w>
m▁ obile</w>
k▁ ind</w>
k eep</w>
j ung</w>
i▁ ons</w>
i▁ dent</w>
ir it</w>
ins eng</w>
in conven
g ▁e</w>
f u▁n
e▁ x</w>
ex▁ c
ee▁ ds</w>
ea s▁
differ e▁nt</w>
d ust</w>
d ri▁
d eath</w>
cl o▁se</w>
a▁ round</w>
ativ ity</w>
an ting</w>
a o
W oo</w>
S por▁ts</w>
S A</w>
C u▁l
Ar t</w>
Amer ic▁an</w>
. 4
▁ther efor</w>
▁scre ened</w>
▁s i▁nce</w>
▁rec on
▁pass age</w>
▁met al</w>
▁mat h</w>
▁mand atory</w>
▁m erg
▁le g</w>
▁gl ob
▁cr af
▁correc tion</w>
▁collabor ation</w>
▁b ond</w>
▁ac compl
▁a uto</w>
▁KOS PI</w>
▁Con test</w>
▁B ang
w▁ ith
v e▁r</w>
t▁ io▁n</w>
ti▁ c
tem per
su ffer
se▁ con
say i▁ng</w>
s il
r▁eal l▁y</w>
ro▁u gh</w>
ro le</w>
o▁ ver</w>
me e▁
m al
l▁ evel</w>
loc ▁
ket ball</w>
jo in▁ed</w>
isher ies</w>
ig ent</w>
h u▁
h ol▁
for▁ m</w>
f ol▁
eh ouse</w>
e ously</w>
citiz e▁ns</w>
ch e▁ck</w>
c ro
a▁r ty</w>
a▁ ds</w>
8 8</w>
▁w illing</w>
▁tr uck</w>
▁t aught</w>
▁st ret
▁sol utions</w>
▁sew age</w>
▁s ells</w>
▁roo f
▁res id
▁r atings</w>
▁prot est</w>
▁pic ked</w>
▁mo tiv
▁mid st</w>
▁lec tur
▁in direc
▁exten uating</w>
▁exc iting</w>
▁depar ture</w>
▁cro ps</w>
▁cos t
▁contrib utions</w>
▁conn ect</w>
▁bott le</w>
▁ar gue</w>
▁Ye oju</w>
▁T ong</w>
▁T imes</w>
▁Prosec utors</w>
▁E U</w>
▁3 9</w>
u el
t een</w>
st one</w>
s k▁
ri▁ sk</w>
produc t</w>
pol ici▁es</w>
n or▁
is▁ t
ip ped</w>
in ate</w>
i rel
g a▁n
f▁ ro▁m</w>
fir s▁t</w>
ev e▁r
e el
cur r▁
compar ▁ed</w>
c eful</w>
bas▁ ic</w>
a▁l ways</w>
at▁ ion▁s</w>
ar ms</w>
ann ou▁n
am▁p ;</w>
ai▁ ly</w>
Sm a▁ll</w>
Sa▁m sung</w>
Sam su▁ng</w>
S o▁
M W</w>
In cheon</w>
H igh</w>
En forceme▁nt</w>
A ug
&apos▁ ;
▁tel eph
▁te eth</w>
▁taxpay er</w>
▁t ough</w>
▁startu p</w>
▁st ation
▁st ates</w>
▁sp eaker</w>
▁shou ldn</w>
▁sh ock</w>
▁pres erve</w>
▁peti tion
▁p ig
▁obs erve</w>
▁nur sing</w>
▁l angu
▁h urry</w>
▁f er
▁diver sif
▁disp atch</w>
▁d awn</w>
▁ass istant</w>
▁apolog ize</w>
▁ad j
▁a c▁
▁Un fortunately</w>
▁Super visory</w>
▁St adium</w>
▁N ew
▁Gal axy</w>
▁D oc
▁D obong</w>
▁Braz ilian</w>
▁5 0
w ing</w>
ti▁ l</w>
s ical</w>
pol ice</w>
o▁l ogy</w>
off i▁ci
n▁ ame</w>
m▁ uch</w>
ma▁ y</w>
manag e▁ment</w>
it cher</w>
infl u
he▁ on</w>
fin▁ al</w>
execu ti▁ve</w>
er▁ y</w>
er as</w>
ener gy</w>
ee ks</w>
ea▁ sed</w>
ear n
deung po</w>
d e▁d</w>
co▁n t▁
c ou▁
ay ▁ed</w>
Y ong</w>
S NS</w>
N e▁w</w>
Jap a▁n
I S</w>
A N
5 5</w>
5 ,000</w>
&ap▁os;▁ re</w>
▁wis hes</w>
▁toil et</w>
▁st ro
▁rob ot</w>
▁prin t</w>
▁perman ent</w>
▁occup ied</w>
▁mass age</w>
▁loc ations</w>
▁k illing</w>
▁h ub</w>
▁compens ate</w>
▁co ast
▁W e
▁Pre viously</w>
▁Pomp eo</w>
▁L t
▁Kor e▁a</w>
▁H ung
▁200 5</w>
w alk</w>
ustr i▁al</w>
up yeong</w>
t▁h ere</w>
t▁ ant</w>
stitu tional</w>
st able</w>
re as</w>
pro mis
pre h
l▁ ine</w>
j ud▁
it a▁l</w>
in tr▁
if▁ ic</w>
go i▁ng</w>
g iv▁
ett es</w>
entif ic</w>
employ e▁es</w>
em er▁
econom ic</w>
con tra▁ct</w>
com▁ pl
compa▁n ies</w>
c o▁r
azakh stan</w>
agre eme▁nt</w>
ad mi▁n
R e▁
O r▁
Ge um
G over▁n
▁w il▁l</w>
▁upl o
▁up coming</w>
▁shut tle</w>
▁rev olution</w>
▁restor ed</w>
▁poll ut
▁mus icians</w>
▁minis try</w>
▁ev ▁
▁entreprene urs</w>
▁ec ological</w>
▁cri tical</w>
▁class room</w>
▁Tr ad
▁Se ocho</w>
▁M un</w>
▁M asan</w>
▁Hy o</w>
▁Econom y</w>
▁Ch un</w>
▁4 8</w>
▁200 4</w>
w ee▁
ul▁ ture</w>
t▁h ey</w>
tim▁ es</w>
tif ied</w>
s▁ ts</w>
sh ▁e</w>
se▁ l
s ely</w>
s ant</w>
re▁ ase</w>
r id
pur po▁se</w>
publ i▁c</w>
pr▁ov ide</w>
per s▁
p .▁m.</w>
op i▁n
on▁ ic</w>
it ude</w>
ighte ous</w>
g ung</w>
fer en▁ce</w>
establis hed</w>
em p▁l
em phas
e ok
e f▁f
d a▁te</w>
anc ement</w>
Mar ch</w>
F und</w>
C C</w>
A ss▁
@▁ -▁@</w>
20 th</w>
▁wor n</w>
▁sh eet</w>
▁sa vings</w>
▁r arely</w>
▁r ac
▁norm ally</w>
▁ir reg
▁g ard
▁effec tively</w>
▁dismis sal</w>
▁dang er</w>
▁d ealing</w>
▁conduc ts</w>
▁car ved</w>
▁car bon</w>
▁bel ongs</w>
▁b ell</w>
▁aud ition</w>
▁architec tural</w>
▁a spects</w>
▁With out</w>
▁Reg ional</w>
▁P angyo</w>
▁O s
▁O p
▁M ir
▁Int ell
▁Exper ience</w>
▁Enter tainment</w>
▁B o</w>
w▁ ar</w>
vir on▁
v eh
v al</w>
un▁ der</w>
tr ue</w>
t oon</w>
re▁ a</w>
pris es</w>
pl▁ ex</w>
ov e▁r</w>
ot▁ el</w>
m ag
lead i▁ng</w>
ld ers</w>
i▁t tee</w>
i▁ st▁
ir able</w>
h▁ alf</w>
ho▁ l
gu k</w>
f▁or mer</w>
f an</w>
et es</w>
eri a▁ls</w>
d▁ em
dr ama</w>
c▁om p
cu▁r rent</w>
countr i▁es</w>
co al</w>
bit r
a▁l ity</w>
aes ong</w>
DA Q</w>
A pr▁il</w>
12 th</w>
▁w rap
▁veter ans</w>
▁trav el
▁ten sion</w>
▁system atically</w>
▁st ating</w>
▁review ing</w>
▁rea ction</w>
▁r oles</w>
▁r i▁ght</w>
▁r ank</w>
▁r ank
▁ph r
▁pas ses</w>
▁off line</w>
▁mo thers</w>
▁integr ation</w>
▁h ired</w>
▁fr▁ om</w>
▁extrem ely</w>
▁democr acy</w>
▁decl ined</w>
▁crow d</w>
▁c igar
▁bu yer</w>
▁bel ief</w>
▁b on
▁b ereaved</w>
▁St and
▁P OS
▁In side</w>
▁I l</w>
w age</w>
ver n
v id▁eo</w>
und ang</w>
ti n</w>
t yp
t ro▁
spec i
se▁ nd</w>
sec tor</w>
s er</w>
re▁ st</w>
r a▁n
q▁ u▁
p▁ o
per f
p u▁r
o▁ per
ove▁r seas</w>
ot▁ e</w>
os eong</w>
og an</w>
m▁ at
min u▁te</w>
mil▁ itary</w>
m on</w>
ivers al</w>
it o▁rs</w>
hig ▁h</w>
eti es</w>
ene z
em atic</w>
ell ed</w>
e th
ber g</w>
ati al</w>
ar iff</w>
am m
T r▁
T e▁
P ri▁
P o
G im
D i
201 2</w>
▁win ds</w>
▁un clear</w>
▁th ▁er▁e</w>
▁stead y</w>
▁renew able</w>
▁prem iums</w>
▁person ally</w>
▁pain ful</w>
▁p ack</w>
▁inv ite</w>
▁impres sed</w>
▁contr ary</w>
▁conf usion</w>
▁con clude</w>
▁ch ocolate</w>
▁c ycle</w>
▁c ells</w>
▁bl oss
▁are n</w>
▁W ashington</w>
▁Techn o</w>
▁Innov ation</w>
▁Gwang gyo</w>
▁Ex penses</w>
▁Chris t</w>
▁Ch un
▁Br anch</w>
▁4 1</w>
xim ately</w>
truc turing</w>
ther e
syst e▁m</w>
sur v
su ally</w>
r▁ o
re▁ au</w>
p▁ ri
p at▁
o▁ l</w>
o ons</w>
n ational</w>
m o▁r
fu▁ l</w>
expen s▁es</w>
es el</w>
d▁ irec
coun c▁il</w>
comm ittees</w>
ch ai▁r
b▁e ing</w>
ati n</w>
any▁ thing</w>
a w▁ay</w>
K a▁ng</w>
Con struc
Br az
8 5</w>
▁won derful</w>
▁sa ving</w>
▁s id
▁r uled</w>
▁r ow</w>
▁purch ases</w>
▁p ▁
▁op tion</w>
▁notif ication</w>
▁n ec
▁langu ages</w>
▁journal ists</w>
▁investig ations</w>
▁inf ants</w>
▁firef ighters</w>
▁en coun
▁del inqu
▁dea ths</w>
▁cons isting</w>
▁char m</w>
▁c oin
▁bo xes</w>
▁abs or
▁Wh ether</w>
▁T ri
▁Swed en</w>
▁S quare</w>
▁Res ources</w>
▁D al
▁C h▁
▁A s
v i▁s
un ate</w>
t ype</w>
s▁c ale</w>
s▁ ide</w>
sel▁ f</w>
s ev▁en</w>
priv ileg
pr ices</w>
p .</w>
manu fac
lo ad</w>
ld wide</w>
l ooki▁ng</w>
l ar▁
k age</w>
is io▁n</w>
ing d
go▁ al</w>
fun▁ ds</w>
fri ends</w>
fl ow
e▁ ther</w>
dis c▁
c▁ ent</w>
c▁ are</w>
ch ▁es</w>
ch il▁d
c us▁
c our▁
b ase</w>
av i▁ng</w>
as k▁ed</w>
ar ▁t</w>
ab s
S ep
S chool</w>
Ord in▁
4 8</w>
▁under go</w>
▁un likely</w>
▁suppl ementary</w>
▁sh ower</w>
▁relation ships</w>
▁realis tic</w>
▁mus cles</w>
▁magaz ine</w>
▁m yst
▁k ind
▁inj uries</w>
▁immigr ation</w>
▁gro und
▁dec eased</w>
▁conf idential</w>
▁but ton</w>
▁b om
▁b anned</w>
▁att ach</w>
▁Tor onto</w>
▁T ell</w>
▁Pa ulo</w>
▁K n
▁J un
▁J am
▁H eung
▁H ead</w>
▁Dong jak</w>
w a▁l
unic ations</w>
un s</w>
treat me▁nt</w>
transport ati▁on</w>
ti oned</w>
t ou
spe▁ ed</w>
s sed</w>
r▁ ep
r▁ athe▁r</w>
r ail
pro j▁
pl▁ y</w>
o▁w ing</w>
on▁ y</w>
mat h</w>
m p▁
lis hed</w>
it ement</w>
in i</w>
ic▁ ts</w>
g▁ ue</w>
govern men▁t</w>
fl oor</w>
f und</w>
f ound
f ighti▁ng</w>
e▁r a</w>
ex c▁
ess ly</w>
elec tr▁
eg ae</w>
ec▁ tion</w>
differ ent</w>
dep u▁ty</w>
del iv
dam a▁ge</w>
ch eon
cer emony</w>
b oy
av ail
an tic</w>
accord an▁ce</w>
Serv ic▁es</w>
S ept
Prov in▁cial</w>
O s</w>
Med i▁um</w>
A ut
9 4</w>
11 th</w>
▁wid th</w>
▁wal ked</w>
▁v otes</w>
▁th inks</w>
▁s▁ ince</w>
▁spea king</w>
▁sof tware</w>
▁sem i</w>
▁ph ilosop
▁or dering</w>
▁open s</w>
▁networ ks</w>
▁mur der</w>
▁mission ary</w>
▁ins p
▁influ enced</w>
▁ge ograph
▁fir ▁st</w>
▁epis ode</w>
▁enthusi astic</w>
▁empl oy
▁correc tive</w>
▁commod ities</w>
▁bow l</w>
▁adjus tment</w>
▁Shin han</w>
▁S us
▁P avilion</w>
▁M E
▁ in▁g</w>
wh▁ ic▁h</w>
vid eo</w>
var▁ ious</w>
um ul
ub ▁
to▁ ur
tif ication</w>
t om▁
s▁ el
rou▁ ps</w>
ro und
res ults</w>
rec t</w>
r ors</w>
qu a▁r
off▁ ic
m▁ ar▁
m et
m ent
m emor
m at▁ch</w>
l▁ ook</w>
it coin</w>
it a▁ge</w>
in▁ d
improv eme▁nt</w>
h im
h and</w>
g il</w>
form ati▁on</w>
facil itie▁s</w>
e▁c t▁ion</w>
est o▁ck</w>
elec ti▁on</w>
econ o▁my</w>
e uk
con nec
ci t▁y</w>
ch eck</w>
c ut</w>
c elebr
b▁ec ome</w>
b▁ etter</w>
bec o▁m
a▁ use</w>
ass oci
ar i▁
al ist</w>
W on</w>
U n▁
S h▁
Chung cheongnam</w>
8 4</w>
2▁ 0</w>
201 5</w>
&ap▁os▁ ;</w>
▁wh oles
▁serv er</w>
▁sea sons</w>
▁remov al</w>
▁pre ferred</w>
▁mach inery</w>
▁in appropriate</w>
▁fr aud</w>
▁f erry</w>
▁f eared</w>
▁en v
▁dign ity</w>
▁des cend
▁cons ci
▁challeng es</w>
▁c ats</w>
▁br inging</w>
▁be ings</w>
▁all ey</w>
▁S ales</w>
▁Mr .
▁Jeoll anam</w>
▁Ind eed</w>
▁C andid
▁B uk
▁Austral ian</w>
▁20 00</w>
w as▁te</w>
tion ary</w>
th ird</w>
s▁ ystem</w>
special iz▁ed</w>
so▁ me
sch ol
s ent
s af
pro▁ m
p un
ou ido</w>
on li▁ne</w>
n e▁d</w>
n at▁
mid d▁le</w>
me▁ eting</w>
lear ni▁ng</w>
it chers</w>
inter▁ es▁ted</w>
inter pre
institu tio▁ns</w>
in stitu▁
hi▁ m</w>
f inis
e▁r ing</w>
e▁ ir</w>
empl o▁y
ement a▁ry</w>
em en▁ts</w>
ea▁ st</w>
e ffic
duc heon</w>
con ti▁n
c risis</w>
at o▁rs</w>
at ever</w>
ar row
and a</w>
S y
Per iod</w>
N▁ am</w>
N o▁
J ang
F est▁iv
5 0
▁symb ol</w>
▁some where</w>
▁sol id
▁respon ses</w>
▁res ulted</w>
▁rem emb
▁r ▁
▁ques tion
▁psych ological</w>
▁prin ting</w>
▁prim ary</w>
▁pri zes</w>
▁pi ano</w>
▁p r▁es
▁o x
▁mach ines</w>
▁instruc tions</w>
▁hea ded</w>
▁harass ment</w>
▁flex ible</w>
▁flav or</w>
▁fair ness</w>
▁exhib its</w>
▁emb arr
▁direc tions</w>
▁d il
▁class ical</w>
▁chec ks</w>
▁car go</w>
▁bull etin</w>
▁appl ies</w>
▁advant ages</w>
▁R ural</w>
▁Nam yangju</w>
▁M c
▁H appy</w>
▁G en
▁Ch ae</w>
ym n
wo▁ ok</w>
w a▁n</w>
ul ▁t</w>
tic▁ le</w>
ta in▁
s▁t ud
s▁ ure</w>
shar i▁ng</w>
se ver
r▁ ough</w>
re▁ ss
resid▁ ents</w>
p▁ re
pro du▁c
pr ing</w>
mis ▁
m a▁rk</w>
loc ated</w>
itt▁ en</w>
ir o</w>
ic le</w>
hear t</w>
govern m▁ent</w>
g t;</w>
en si▁ve</w>
ed▁ ly</w>
ec te▁d</w>
dem a▁nd</w>
ch ec
avoid able</w>
at e▁
as tically</w>
an ity</w>
all eg
Y i</w>
U▁n ited</w>
Su▁ p
&a▁pos▁ ;</w>
▁with draw</w>
▁under way</w>
▁tal ents</w>
▁str ict</w>
▁st eering</w>
▁rep utation</w>
▁renew ed</w>
▁re hab
▁r ear</w>
▁pro longed</w>
▁ph ase</w>
▁per su
▁objec tion</w>
▁mom entum</w>
▁li e</w>
▁indic ating</w>
▁ex ▁
▁encour aged</w>
▁ear n</w>
▁e rected</w>
▁d ur
▁d ating</w>
▁cont acted</w>
▁ch ap
▁b ank
▁Yang ju</w>
▁Wor king</w>
▁U sually</w>
▁T ower</w>
▁Sp anish</w>
▁Se odaemun</w>
▁S an
▁L earning</w>
▁Jong no</w>
▁G ov.</w>
▁Ar gent
▁5 0s</w>
▁3 00,000</w>
yo▁ ung</w>
w▁ i▁ll</w>
wh▁ y</w>
u▁ le</w>
ul ates</w>
uc ky</w>
tor al</w>
ti▁ c</w>
te▁ er</w>
t el
sk ills</w>
r▁ oom</w>
ris ▁
re▁ sid
ran ki▁ng</w>
po▁r ts</w>
pos▁ it▁ion</w>
p ass</w>
ou ts</w>
org an▁
on ment</w>
m u▁st</w>
l▁ is▁
lar ation</w>
i▁n d
ind u▁s
ili ans</w>
if ic▁
h ers</w>
g▁ il</w>
f▁ ter</w>
f u▁r
f u
f a▁r
e▁s s▁
ex hib▁
est ors</w>
emati cs</w>
em ▁ed</w>
el ine</w>
di e</w>
c▁ ri▁
commission ▁ed</w>
ann ▁ed</w>
and i▁ng</w>
an es</w>
am ent</w>
ali for
a ju</w>
S he</w>
Par▁ k</w>
O S</w>
3 9</w>
&▁qu ▁o▁t;</w>
&▁a▁ pos;
▁y o▁u</w>
▁tr uly</w>
▁t end
▁re▁ ferred</w>
▁ret ail</w>
▁res ignation</w>
▁recycl ing</w>
▁recons truction</w>
▁pursu e</w>
▁oper ational</w>
▁men us</w>
▁l oud</w>
▁issu ing</w>
▁h ire</w>
▁fr ag
▁fea tured</w>
▁domin ated</w>
▁dec isions</w>
▁d ess
▁ch ances</w>
▁ch air</w>
▁b att
▁ag es</w>
▁Stud ies</w>
▁Rep .</w>
▁Emb assy</w>
▁Co oper
w at▁
v ic▁e</w>
v el</w>
ur ban</w>
tr aff▁ic</w>
t less</w>
si▁ k</w>
sea s▁on</w>
sc ale</w>
repor t▁ed</w>
rel eased</w>
reg i▁on</w>
re du▁ce</w>
p▁ol ice</w>
p▁ art</w>
pos▁ si▁ble</w>
por t▁s</w>
pay me▁nt</w>
organiz ations</w>
n▁ ess</w>
n i</w>
m▁ aking</w>
ma▁ il</w>
m ant
l os
iti s</w>
ish i▁ng</w>
ie vers</w>
i ances</w>
g ames</w>
f▁ an</w>
ff ers</w>
est yle</w>
ell ence</w>
dis cr
develop ed</w>
d epartment</w>
con serv
compl et▁ed</w>
c and
a▁f te▁r</w>
a▁c y</w>
ag e▁s</w>
P▁ ar
P S</w>
O R
L im</w>
201 4</w>
. 6
▁un employment</w>
▁tax is</w>
▁targ eting</w>
▁super ior</w>
▁strateg ies</w>
▁sign al</w>
▁s oo</w>
▁rea ders</w>
▁p ath
▁ow nership</w>
▁l ay
▁ju ice</w>
▁inves ting</w>
▁evac u
▁descri bed</w>
▁c utting</w>
▁bo ats</w>
▁b ike</w>
▁analy zing</w>
▁air line</w>
▁Pro perty</w>
▁POS CO</w>
▁J oint</w>
▁Cheong ju</w>
▁B udget</w>
▁Am b
w▁ it
w ri▁
v ent
tr aining</w>
st ar</w>
situ ati▁on</w>
si k</w>
se▁con d</w>
re q▁u
re port</w>
ph o▁to</w>
p ack
ock et</w>
o b▁er</w>
manu factur
l▁ ife</w>
it ual</w>
it ably</w>
ind ic
in i▁ng</w>
if ier</w>
hou s▁es</w>
fam ilies</w>
f ers</w>
f av▁
e▁n ed</w>
exp a▁n
ex isti▁ng</w>
ev en▁t</w>
enc i▁es</w>
e try</w>
div isi▁on</w>
d ol</w>
c▁h an▁ge</w>
a que</w>
S oci▁al</w>
P▁ ark</w>
Ex tensi▁on</w>
2 9
▁w ou▁ld</w>
▁train ees</w>
▁subscri bers</w>
▁stud io</w>
▁st agn
▁sn acks</w>
▁sm a▁ll</w>
▁sincer ely</w>
▁represent ing</w>
▁reg eneration</w>
▁recru ited</w>
▁rank ings</w>
▁out come</w>
▁l uck</w>
▁inv ent
▁hel icop
▁hea ted</w>
▁green house</w>
▁great est</w>
▁gen re</w>
▁ex ists</w>
▁diagnos ed</w>
▁design er</w>
▁chem ical</w>
▁attac ks</w>
▁ass embly</w>
▁Sh ins
▁Jeon ju</w>
▁Ch an</w>
▁Cath olic</w>
▁C N
▁Buddh ism</w>
▁2 6
w elfare</w>
w el
s▁ ta▁
s▁ k
s▁ ince</w>
sum mer</w>
st o▁re</w>
si▁ ze</w>
sh a▁re</w>
pr▁ oc▁
per i
ophis tic
ok ay</w>
me▁mb ers</w>
m u</w>
i▁ ver
inves ▁
h▁ ot</w>
h is
fort ably</w>
f un</w>
e▁ men▁t</w>
exp e▁n
el▁ l
ea uty</w>
dr a▁ma</w>
dev e▁lop
d ly</w>
c er</w>
b▁ o
applic ati▁on</w>
am ination</w>
S▁ .</w>
S ta▁
M an
J a▁p
G r▁
G ove▁rn
Em pl
Ch▁ ina</w>
A E</w>
8 6</w>
&ap▁os; r▁e</w>
▁un avoidable</w>
▁techn ique</w>
▁t all</w>
▁sw ing</w>
▁surv ival</w>
▁sign ature</w>
▁r ough</w>
▁r hyth
▁pal ace</w>
▁o uter</w>
▁mat h
▁m yeon</w>
▁ly rics</w>
▁l acking</w>
▁k m</w>
▁in augur
▁effec tiveness</w>
▁cou l▁d</w>
▁autom obile</w>
▁arriv al</w>
▁argu ment</w>
▁T our</w>
▁St ream</w>
▁Or ig
▁Bu ilding</w>
▁Aud it</w>
▁5 00,000</w>
wh o▁se</w>
val ue</w>
ul a▁r</w>
t▁ her
tur ▁al</w>
th ei▁r</w>
streng th
show ed</w>
re▁ am</w>
o▁ te</w>
or ship</w>
onal do</w>
oc ated</w>
mov ie</w>
mea sures</w>
m ent▁s</w>
low ▁er</w>
in▁ ts</w>
in▁ come</w>
int e▁n
househ ol▁ds</w>
es tions</w>
el o▁ng</w>
educ ation▁al</w>
du ty</w>
dro p</w>
d ang
con tract</w>
cer t</w>
cent e▁rs</w>
buil t</w>
an▁ ces</w>
ant a</w>
amp▁ ;</w>
ac ti▁ng</w>
a he▁ad</w>
U r
S c▁h
S AT</w>
I ▁t</w>
Gyeongsang nam</w>
D ynasty</w>
D i▁
D ef
1 8th</w>
&ap▁os▁; l▁l</w>
▁vess els</w>
▁trans formed</w>
▁thre w</w>
▁surv ive</w>
▁surv eys</w>
▁res istance</w>
▁rehab ilitation</w>
▁pr on
▁occup ancy</w>
▁measu rement</w>
▁manufactur ed</w>
▁l ▁
▁infec tious</w>
▁immedi ate</w>
▁gri ev
▁func tional</w>
▁fulf ill</w>
▁equ al</w>
▁design ers</w>
▁des irable</w>
▁deleg ation</w>
▁compl eting</w>
▁commod ity</w>
▁cam eras</w>
▁b id</w>
▁R ights</w>
▁O san</w>
▁M emor
▁L eg
▁De ok
▁D r.</w>
▁D ok
▁Ben to</w>
y outh</w>
wr it
w id
t▁h y</w>
tak ▁en</w>
s▁ ik</w>
st ation</w>
s ign▁
r▁ ef▁
r ai▁
pro▁ bl
previ o▁us</w>
po▁ p</w>
ph ys
l t;</w>
jo▁ in</w>
is ti▁cs</w>
is ms</w>
gra▁ de</w>
ex erc
end ers</w>
eh ind</w>
du▁ st</w>
dre w</w>
d et▁
d est
con▁ ti▁n
con ten
ch▁ ool</w>
c am
b re▁
aw ing</w>
am ▁s</w>
ac ti▁on</w>
Techn olo▁gy</w>
S ▁h
K ing</w>
Japa▁n ese</w>
In t▁er
D ae</w>
5 3</w>
&ap▁os; t</w>
▁tem ples</w>
▁t ariff</w>
▁s is
▁res tructuring</w>
▁reg ret
▁publ ishing</w>
▁prom ul
▁n on
▁mist akes</w>
▁lov es</w>
▁liqu or</w>
▁k ill</w>
▁indic ates</w>
▁for ests</w>
▁fl uctu
▁experi encing</w>
▁excav ated</w>
▁equ ity</w>
▁cur iosity</w>
▁coll ective</w>
▁cap tured</w>
▁acc ept
▁Wh enever</w>
▁V al
▁R eal
▁Mar itime</w>
▁Mar ine</w>
▁M il
▁L aw</w>
▁K w
▁Del iber
▁C J</w>
web site</w>
ven ue</w>
tu p</w>
tr ic</w>
the▁ me</w>
s eas
progr ams</w>
probl ems</w>
press way</w>
over ing</w>
oo th
mat eria▁ls</w>
l es▁s</w>
j un
high e▁st</w>
h or
ga▁ ve</w>
g ido</w>
g a</w>
fa▁m ily</w>
e▁ ff
ea▁ l
direc tor</w>
diff▁ ic
devel▁ op
d ir▁
b at
al ties</w>
ac t
a os</w>
Y ou▁th</w>
P l▁
O N</w>
M S</w>
Ga▁ng nam</w>
D s</w>
C▁ en▁ter</w>
▁w allet</w>
▁tr ained</w>
▁ther apy</w>
▁t ower</w>
▁sub contrac
▁revis e</w>
▁rem od
▁ref res
▁negoti ation</w>
▁l augh</w>
▁interpre tation</w>
▁ill ness</w>
▁flo ors</w>
▁dem ol
▁correspon ding</w>
▁con v
▁com ment</w>
▁ch est</w>
▁b ound
▁b amboo</w>
▁Wo ori</w>
▁Treas ury</w>
▁Jeon nam</w>
▁Il bo</w>
▁B er
▁An yone</w>
▁Accoun ting</w>
▁4 2</w>
x i</w>
v arious</w>
ta i▁n</w>
t our</w>
st res
sib ili▁ty</w>
s uc▁h</w>
s afe</w>
ri e▁d</w>
re plac
p▁ ri▁
pr▁o j▁ect</w>
pro▁ ject</w>
por ▁
par ents</w>
p ic▁
o▁p ment</w>
ou l
or ous</w>
mov ▁ed</w>
ma▁r ket</w>
j eong
is▁ m</w>
is h▁
ili ation</w>
il it▁y</w>
ign s</w>
i ate</w>
h appy</w>
e▁v el</w>
e▁ ars</w>
er ge</w>
en▁ ded</w>
en viro▁n
en tr▁
ec ture</w>
eas e▁d</w>
e h▁
do▁ or</w>
disab l▁ed</w>
di rec▁
d ▁e</w>
d im
co operation</w>
bu▁ s
at oes</w>
ast le</w>
ar▁ ts</w>
ai▁n ing</w>
ab▁ out</w>
R o▁
J a▁ng</w>
I l
I A</w>
D evel
Ass oci▁
Ass ociation</w>
201 3</w>
19 th</w>
▁u ▁
▁surpris e</w>
▁sup er</w>
▁sti p
▁st airs</w>
▁ship ped</w>
▁sec tions</w>
▁scat tered</w>
▁p ep
▁op tim
▁laun ching</w>
▁hot els</w>
▁heal ing</w>
▁fea turing</w>
▁exemp t</w>
▁des ired</w>
▁depos ited</w>
▁co ex
▁c akes</w>
▁bel t</w>
▁attemp ted</w>
▁ar t
▁U U</w>
▁Sch ol
▁Pro c
▁Pre vention</w>
▁Mor eover</w>
▁Mongol ian</w>
▁M oo</w>
▁Gir l</w>
▁5 5</w>
view ers</w>
vi e▁
u▁ ss</w>
ur▁ ing</w>
ur g
u hol</w>
tr ust</w>
ti▁ al</w>
ta▁ ct</w>
t ook</w>
s▁m all</w>
some▁ thing</w>
som ▁e</w>
si▁ a</w>
sid ▁e</w>
ri ental</w>
ri d</w>
rec og
pur pose</w>
pos s▁
pl a▁y
pas s▁ed</w>
p ed
our ney</w>
m e▁d</w>
m enti
l iter
jo▁ on</w>
i▁ tie▁s</w>
int ro▁
inc ere</w>
id en▁ts</w>
f und
f estival</w>
et ti▁ng</w>
enterpris es</w>
ec tions</w>
ea▁ m</w>
dro me</w>
de▁c i▁ded</w>
c▁ enter</w>
ch air
c e▁r
bus y</w>
ard ▁s</w>
ant ine</w>
an oth▁er</w>
ai▁ ls</w>
W h
S eptember</w>
S CO</w>
J oseon</w>
IC E</w>
Gyeongsang buk</w>
C en▁ter</w>
A n▁
20▁1 8</w>
&ap▁os;▁ ve</w>
▁wor e</w>
▁wind ows</w>
▁tre at
▁tax ation</w>
▁t ools</w>
▁str aw
▁spec t
▁sp ot
▁r ot
▁produc tivity</w>
▁prec ed
▁p izza</w>
▁p itcher</w>
▁occ asion</w>
▁inc orpor
▁high way</w>
▁ha ir
▁h anging</w>
▁f ast
▁expres sions</w>
▁execu ted</w>
▁exc eeding</w>
▁e at
▁do ors</w>
▁disapp ear</w>
▁determ ination</w>
▁contr ast</w>
▁b ound</w>
▁b e▁
▁as leep</w>
▁ar ise</w>
▁R onaldo</w>
▁Prot ection</w>
▁M BC</w>
▁I CT</w>
▁H eo</w>
▁EX O</w>
▁A .</w>
▁4 3</w>
w▁ ays</w>
w el▁l</w>
v al▁ue</w>
ub erc
tr▁ ict</w>
sus pen
str ong</w>
st ing</w>
sec tion</w>
s an
r▁ et▁
professi on▁al</w>
o▁r ry</w>
ot▁ ion</w>
or c
mak ers</w>
m osp
lo▁ oking</w>
ky u▁ng</w>
in ally</w>
il iti▁es</w>
if ▁e</w>
hw am
fee▁ l</w>
exper ience</w>
exam inati▁on</w>
ex po▁rt</w>
ent re
ent l▁y</w>
develo▁p ment</w>
d augh
cre at▁ed</w>
candid a▁te</w>
b▁ udget</w>
b▁ ette▁r</w>
ati tude</w>
as m</w>
ann a</w>
ag ue</w>
ad o</w>
S afe▁ty</w>
R ul▁es</w>
I D</w>
H a</w>
F o▁od</w>
En▁ glish</w>
A D</w>
7 2</w>
&▁apos; ▁s</w>
&a▁po▁s ;▁s</w>
▁y ouths</w>
▁un t▁il</w>
▁trav eled</w>
▁tou ching</w>
▁st ance</w>
▁reap pointed</w>
▁prot ests</w>
▁pl edge</w>
▁newsp apers</w>
▁mis s
▁juven iles</w>
▁inev itably</w>
▁hom eless</w>
▁fin ancing</w>
▁d ressed</w>
▁cre ativity</w>
▁bir th
▁attrac ts</w>
▁ag ▁
▁a h</w>
▁Y e</w>
▁W al
▁Nex en</w>
▁ME RS</w>
▁G l
▁For um</w>
▁Cl ub</w>
▁B upyeong</w>
▁Ad visory</w>
▁A uth
ymn as
w a▁r
v ent</w>
u▁ ce</w>
un▁ d▁er</w>
tax i</w>
t ar</w>
sur ed</w>
st▁ ar</w>
st and</w>
show i▁ng</w>
p▁er s▁on</w>
pr▁ of
pr▁ is
pos itory</w>
o▁ u▁t</w>
o▁ ri
or▁ k</w>
org a▁n
or ic</w>
or able</w>
op port▁
on als</w>
ok en</w>
lo▁ st</w>
langu a▁ge</w>
inc▁ re▁ase</w>
import ant</w>
il▁ d</w>
il ty</w>
i at
i a
h▁ ealth</w>
hw a▁n</w>
h all</w>
for ced</w>
fl o
f oot</w>
f elt</w>
e▁c tive</w>
emb le</w>
ell a</w>
c▁ ity</w>
con f▁
atten ▁
arm ing</w>
ag re▁
ack et</w>
Y ear</w>
P lea▁
J o▁s
D P</w>
Ass emb▁ly</w>
2 6th</w>
▁war ned</w>
▁tro ubl
▁to x
▁t ells</w>
▁res ort</w>
▁recru iting</w>
▁r ivers</w>
▁p o▁
▁lun ar</w>
▁j u</w>
▁form al</w>
▁fl ows</w>
▁exam ined</w>
▁elev ator</w>
▁dist inc
▁dis inf
▁dep end
▁d yn
▁c ope</w>
▁S ar
▁P rem
▁Olymp ic</w>
▁L iving</w>
▁K azakhstan</w>
▁Inst agram</w>
▁Deliber ative</w>
▁Can ad
▁B al
▁201 ▁
▁2 50</w>
▁&apo▁s ;t</w>
y▁ eo</w>
wi▁ fe</w>
w a▁ge</w>
sub je▁ct</w>
spec ial</w>
sp ea
sh▁ op</w>
se o▁ng</w>
s e▁nt</w>
s e▁d</w>
s ee
re tu▁rn</w>
produ▁ ct</w>
perfor▁m a▁nce</w>
p ical</w>
or i▁ty</w>
oper ati▁ng</w>
olog ic▁al</w>
od his
n e▁r
m▁ in
mod▁ el</w>
me▁ et▁ing</w>
mb ud
m aj
l t</w>
jec ▁ts</w>
in▁ t</w>
ill er</w>
ighten ed</w>
ial ▁s</w>
g as</w>
f a▁ll</w>
e▁ up</w>
es is</w>
er g▁
ecess or</w>
ec tly</w>
der ▁ed</w>
d a
cl ub</w>
ce▁n ter</w>
bo ards</w>
al rea▁dy</w>
Spec i▁al</w>
Je o▁ng</w>
Ch ang
B a▁
Am eric
A ugust</w>
▁wh▁ ere</w>
▁vir tually</w>
▁vir tual</w>
▁transpar ent</w>
▁teleph one</w>
▁tel evision</w>
▁step ped</w>
▁sl ump</w>
▁semiconduc tors</w>
▁roo t</w>
▁reven ues</w>
▁res trict</w>
▁res iding</w>
▁relig ion</w>
▁rec overed</w>
▁rea ching</w>
▁pursu ed</w>
▁prosec utors</w>
▁proc esses</w>
▁predic ts</w>
▁pow der</w>
▁photograp hs</w>
▁p ure</w>
▁p acked</w>
▁out break</w>
▁n arrow
▁max im
▁m o▁
▁m alls</w>
▁guarant eed</w>
▁fi x</w>
▁fe ed</w>
▁enti tled</w>
▁cre w</w>
▁coast al</w>
▁circ le</w>
▁ch eer</w>
▁ch at</w>
▁c el
▁c au
▁bl ow</w>
▁a▁ fter</w>
▁alleg ed</w>
▁al ive</w>
▁W ang</w>
▁P ower</w>
▁P C</w>
▁Nam won</w>
▁K E
▁Every thing</w>
▁C os
▁B esides</w>
▁At tached</w>
▁2 8
▁&apos; t</w>
w▁h er▁e</w>
w▁ an▁
v ▁es</w>
ul ▁d</w>
tiv ▁es</w>
si t▁e</w>
s o
rup t</w>
ro o▁
rec ently</w>
rat h▁er</w>
pr▁o duct</w>
pro▁ b
po▁l icy</w>
pos ing</w>
per or</w>
natur ▁al</w>
mis si▁on</w>
m ail</w>
l ad
i▁ gh</w>
it ness</w>
ingd oms</w>
ing ness</w>
id ers</w>
id ation</w>
ic ro</w>
h oo▁n</w>
fun ds</w>
e▁x pec
em por
ef▁ fo▁r
ea sures</w>
ea si▁
e iling</w>
dis ast▁er</w>
d ated</w>
c▁ ame</w>
ca▁ p
c ust
bo▁r n</w>
b a▁se</w>
ap▁ er</w>
an▁ n
an▁ k</w>
ag i▁ng</w>
ad on</w>
ac h▁ed</w>
St ati▁on</w>
Plea▁ sant</w>
Ph one</w>
In stitu
In nov
Ch a▁nge</w>
C er
▁vir us</w>
▁vac ancy</w>
▁term inal</w>
▁sw eat</w>
▁suppl ement</w>
▁sub stances</w>
▁show case</w>
▁sh ift</w>
▁qu ota</w>
▁publ ish</w>
▁po is
▁p ick
▁lea p</w>
▁ins isted</w>
▁h n
▁h itting</w>
▁h al
▁gu ys</w>
▁fri endship</w>
▁f em
▁decre asing</w>
▁co al</w>
▁at torney</w>
▁Sec ond</w>
▁Reg ulation</w>
▁Pal dang</w>
▁M el
▁L os</w>
▁KOS DAQ</w>
▁Gyeong buk</w>
▁G ame</w>
▁Ex change</w>
▁Environ mental</w>
▁Dong ducheon</w>
▁D a</w>
▁Ch osun</w>
ve▁ h
u g▁
ti f▁
t arg
s▁ s</w>
s▁ l
sup p▁ly</w>
str u▁c
st o▁ne</w>
ris k</w>
res tric
r on</w>
pos▁ al</w>
ph y</w>
or▁ es</w>
or ite</w>
n t</w>
m eal</w>
lif ▁e</w>
lea▁ st</w>
k er▁s</w>
jec tion</w>
j udg
j eo▁ng</w>
j a▁e</w>
in e
h▁ t</w>
form▁ ed</w>
e▁v ent</w>
e▁ ff▁
e▁ at</w>
er ly</w>
el der▁ly</w>
ec on▁
diff▁er en▁t</w>
dec▁ is▁ion</w>
d ai▁ly</w>
c▁ .</w>
con ven▁
competi tiv
com i▁ng</w>
ch a▁r
c op
c a▁rs</w>
a▁r i▁
aud ▁
all i▁ng</w>
ac ific</w>
ab▁ il▁ity</w>
ab l▁
W h▁
O c▁
K▁or e▁an</w>
Eng li▁sh</w>
Dec ree</w>
Cl▁ assy</w>
5 7</w>
▁wholes ale</w>
▁w ild
▁up date</w>
▁tr ash</w>
▁toil ets</w>
▁tit led</w>
▁t elling</w>
▁review ed</w>
▁rem ark
▁prom inent</w>
▁pos ting</w>
▁plen ty</w>
▁p anel</w>
▁occup ation</w>
▁n ations</w>
▁har vest</w>
▁fe ed
▁excav ation</w>
▁en able</w>
▁diver sity</w>
▁dep ression</w>
▁child hood</w>
▁bel ievers</w>
▁W at
▁V eter
▁Pl aza</w>
▁Pl an</w>
▁Par ents</w>
▁P rivate</w>
▁Isra el</w>
▁Integr ated</w>
▁Han oi</w>
▁Gar den</w>
▁Americ ans</w>
▁Amb assador</w>
▁Afric an</w>
▁4 0
z h
u▁ ation</w>
urr ing</w>
u t▁ion</w>
there of</w>
s▁ im
spon s
sm artph
si v▁e</w>
s eon</w>
r▁ ed
rest a▁
pop ular
p o▁n
o▁ ff▁ice</w>
ou gh▁
oll i</w>
of t▁en</w>
m▁ ost</w>
mon t▁hs</w>
j e
iti cal</w>
in▁ st▁
ing re
im pl▁
here i▁n
hea▁ d</w>
e▁n t
e▁n ing</w>
e▁ conom
exhib iti▁on</w>
establis hme▁nt</w>
el op</w>
e ing</w>
d▁ el
ch o</w>
b▁ um</w>
a▁p p▁
a▁ r▁
ar ts</w>
S e</w>
Pol i▁cy</w>
J eon
Intern▁ et</w>
Ind ustri▁al</w>
I s</w>
Gang▁ nam</w>
C o</w>
▁viol ated</w>
▁u ally</w>
▁th ir
▁surroun ded</w>
▁sec onds</w>
▁res ▁
▁reorganiz ation</w>
▁ren owned</w>
▁r ub
▁qu it</w>
▁prof itability</w>
▁pr aise</w>
▁post pon
▁out lets</w>
▁l e▁vel</w>
▁histor ic</w>
▁h alls</w>
▁gu ards</w>
▁gr ass</w>
▁fin alized</w>
▁f at
▁encour aging</w>
▁driv en</w>
▁dr agon</w>
▁collea gues</w>
▁chec k
▁car di
▁camp ing</w>
▁b o▁
▁autom atic</w>
▁ar bitr
▁appl iances</w>
▁an g
▁advis ed</w>
▁U p</w>
▁Se wol</w>
▁R ail
▁P ung
▁H adong</w>
▁G i
▁D idn</w>
▁Bro adc
x it</w>
with in</w>
wa it</w>
v in▁g</w>
u▁n ique</w>
ul ent</w>
t▁en sion</w>
t ou▁ris
t otal</w>
sch oo▁ls</w>
sa▁ fe</w>
s o▁ns</w>
r▁ ep▁
ro▁ w</w>
r ine</w>
quar ter</w>
pr▁ ep
projec ▁t</w>
pro tec
pos ure</w>
per fo▁rm</w>
or m
oot ball</w>
ne▁ ws</w>
m▁ ents</w>
m ach
k ind</w>
i▁r st</w>
inves t▁
impo▁r t▁ant</w>
if iers</w>
ic ine</w>
f▁ er</w>
fl ix</w>
ex▁ pl
er▁ ce</w>
er ial</w>
enez uel
end ar</w>
en tic
ef▁ t</w>
eff ect</w>
ea st</w>
d▁ uring</w>
du▁ rin▁g</w>
di▁ sc
c▁ r▁ea
c▁ le</w>
consid ▁er
condu▁ ct</w>
conditi ons</w>
comp etition</w>
beco▁m ▁e</w>
b ir▁
as t▁ic</w>
appl i▁ed</w>
abil iti▁es</w>
W ▁h
Univer ▁
S D</w>
Pr▁ ov
M oun
J eong
Da e▁
A g
8 9</w>
7 7</w>
7 6</w>
▁un ions</w>
▁un ified</w>
▁tr a
▁thous and</w>
▁th in</w>
▁t ens</w>
▁sub mission</w>
▁str i
▁sti mul
▁shor tly</w>
▁sci entific</w>
▁s par
▁restric tion</w>
▁resear cher</w>
▁refug ee</w>
▁public ize</w>
▁pro spective</w>
▁por tr
▁observ ation</w>
▁o cean</w>
▁mus h
▁hon est</w>
▁ha bits</w>
▁dial ogue</w>
▁def icit</w>
▁def eated</w>
▁d ol
▁co alition</w>
▁c o▁m
▁bas ketball</w>
▁b rown</w>
▁aut onomy</w>
▁Shins egae</w>
▁S till</w>
▁Per form
▁J akarta</w>
▁Hist ory</w>
▁H aving</w>
▁Go jong</w>
▁G overn
▁Angel es</w>
wh eth▁er</w>
ut e▁s</w>
uberc ul
tour i▁sm</w>
tain ly</w>
t e▁nt</w>
sh ould</w>
rank ▁ed</w>
pos sib▁le</w>
pl ane</w>
par ti
oc ation</w>
min im
i▁c k</w>
i▁ onal</w>
increas i▁ng</w>
id enti
g▁ roup</w>
gr i</w>
gi▁ v▁e</w>
et ely</w>
co▁ un▁
cer e▁m
b▁ uk</w>
bel iev
ar io</w>
and o</w>
an t▁ed</w>
ad i▁ng</w>
acc o▁rd▁ing</w>
T▁ r
T a▁
S on</w>
S o</w>
Nov emb▁er</w>
H a▁ll</w>
G ro▁up</w>
D▁ ec
2 7th</w>
1 4th</w>
▁wh er▁e</w>
▁view ing</w>
▁uni forms</w>
▁ter rible</w>
▁sum m
▁struc tural</w>
▁rel uc
▁pun ished</w>
▁play ground</w>
▁p itchers</w>
▁objec tive</w>
▁inscri ption</w>
▁h ip</w>
▁fisher ies</w>
▁em issions</w>
▁docum entary</w>
▁div ul
▁div or
▁confron tation</w>
▁charg ing</w>
▁cer em
▁br onze</w>
▁U.S.- China</w>
▁T er
▁Pro ducts</w>
▁P ohang</w>
▁O ut
▁J a</w>
▁H eavy</w>
▁Gw acheon</w>
▁Gol den</w>
▁For ce</w>
▁Ear th</w>
▁B each</w>
▁4 4</w>
▁2 .
▁0 .
ultur a▁l</w>
trav▁ el</w>
son nel</w>
si o▁ns</w>
sch▁ ed
s oc▁
s ign</w>
r▁ u
pl ▁e</w>
organiz ation</w>
om ▁e</w>
n ity</w>
mul tic
mat ch</w>
lim ited</w>
l at
ke▁ ep</w>
in ity</w>
im ent</w>
id eo</w>
ic ity</w>
govern ▁ment</w>
fe▁ es</w>
fa▁ ir</w>
ent▁ r
c▁ ess</w>
cr▁ ea
cont ent</w>
con d▁uc
ch ▁ul</w>
cer tain</w>
car ri▁ed</w>
can n▁ot</w>
c or▁
a▁ pe</w>
at▁ i▁on</w>
at▁ io▁ns</w>
as y</w>
as hed</w>
am in</w>
alifor nia</w>
additi on▁al</w>
act▁iv ely</w>
acc ident</w>
W ave</w>
Q u
O ctober</w>
O T
M i</w>
H ous
F▁ r
F C</w>
B e
9 9</w>
9 6</w>
▁w ealth</w>
▁viol ent</w>
▁sup porters</w>
▁shel ter</w>
▁requ esting</w>
▁rec re
▁qual ifications</w>
▁philosop hy</w>
▁ph armaceutical</w>
▁perform ers</w>
▁overwhel ming</w>
▁lib eration</w>
▁l od
▁inspec tor</w>
▁hea v
▁gol den</w>
▁fl ying</w>
▁fl ights</w>
▁fisher y</w>
▁exam ining</w>
▁eat en</w>
▁dis bursement</w>
▁depos its</w>
▁caf é</w>
▁assa ulted</w>
▁anc estors</w>
▁a uction</w>
▁Wor kers</w>
▁S ung
▁S in</w>
▁Rev olution</w>
▁Pal ace</w>
▁L iter
▁J ames</w>
▁In finite</w>
▁I cheon</w>
▁Hy ung</w>
▁F ol
▁F isheries</w>
▁Ev aluation</w>
▁Chung cheongnam</w>
▁C ard</w>
▁4 0s</w>
w arm</w>
vi▁ ll
v ulner
us ers</w>
um a</w>
tr▁ ib
ter ies</w>
sy mp
su▁ res</w>
sing le</w>
r▁ec ent</w>
reason able</w>
pr▁o ject</w>
po▁ sed</w>
poin ts</w>
over ▁ed</w>
ot ers</w>
oper a▁te</w>
ol ds</w>
m as
ld est</w>
k ets</w>
inter n▁
ind ang</w>
h▁el p</w>
h oon</w>
g ol
fo▁r w▁ard</w>
f e▁r
e▁n se</w>
ex i▁st
eng▁ th</w>
em an</w>
ec ti▁ng</w>
c▁ au▁
cul tiv
com ed</w>
c ultural</w>
a▁m ong</w>
attrac ti▁ng</w>
ation a▁l</w>
ant ee</w>
ad em▁
R e
Con fuc
C E</w>
5 8</w>
5 1</w>
2 3rd</w>
▁transl ated</w>
▁th row</w>
▁th e▁ir</w>
▁text books</w>
▁struc tures</w>
▁sp atial</w>
▁serv es</w>
▁res ting</w>
▁r ing</w>
▁quar ter
▁prot ecting</w>
▁plea sure</w>
▁pedestr ian</w>
▁m ix
▁inquir ies</w>
▁hy giene</w>
▁ha bit
▁expl ore</w>
▁div id
▁cultiv ation</w>
▁clou ds</w>
▁b e▁g
▁associ ated</w>
▁as ks</w>
▁ab or
w▁it h▁in</w>
wr itt▁en</w>
t▁ic l▁e</w>
t▁ ow
t ang
stu▁ dy</w>
stat▁ us</w>
si t▁es</w>
s ea▁
r▁ ole</w>
row s</w>
re at
pr▁ ot
pr ais
perc ent</w>
o▁w er</w>
ov▁er n▁or</w>
opport uni▁ty</w>
om er
n is</w>
n ex▁t</w>
me▁ an▁s</w>
m i▁t</w>
l▁ iving</w>
k e▁rs</w>
i▁ cial</w>
itor ium</w>
it ar</w>
in ev
ic ks</w>
head quarte▁rs</w>
gr▁ ow
g rou▁ps</w>
g rounds</w>
fl▁ u
f oll
e▁ mb
est ab▁
en ior</w>
ec▁ tor</w>
ec ▁ts</w>
du▁ ced</w>
coun ti▁es</w>
com▁p a▁red</w>
cl▁ os
at▁ h
ativ ▁es</w>
at ar</w>
ar▁ d
an i</w>
ak ers</w>
adv ance</w>
ac ent</w>
L G</w>
Dec r▁ee</w>
2 1st</w>
▁tex tile</w>
▁t o▁t
▁sharehol der</w>
▁sc r
▁sa i▁d</w>
▁s c▁
▁repres ents</w>
▁ren ov
▁recons truc
▁nur se</w>
▁i l</w>
▁har sh</w>
▁grand father</w>
▁express ly</w>
▁en ▁
▁en emy</w>
▁compl ained</w>
▁ch▁ eck</w>
▁ch erry</w>
▁celebr ation</w>
▁c ooked</w>
▁ar m</w>
▁anim ation</w>
▁Vol un
▁T ong
▁T en</w>
▁P an
▁L arge</w>
▁Ital ian</w>
▁Inves tig
▁Hang eul</w>
▁D ance</w>
v ate</w>
un▁ it</w>
ud d▁
ti▁ g
t ae</w>
s▁ is</w>
s▁ h</w>
su▁ n</w>
st ep</w>
si tion</w>
ser▁ vice</w>
se e▁ms</w>
sa▁ f
r▁ an</w>
rou pe</w>
ro c
ri a</w>
re at</w>
q▁u▁ ot;</w>
pres e▁nt</w>
pres ent</w>
or i▁ng</w>
or i▁g
od ed</w>
n e▁r</w>
lo▁ c
l ibr
j e▁cts</w>
it ain</w>
ip e</w>
ion ally</w>
h uge</w>
grow i▁ng</w>
g eneral</w>
f▁am ous</w>
foll▁ owing</w>
es h</w>
entr us
empl oyed</w>
eff ▁
du▁ ring</w>
chi▁ld ren</w>
ch airperson</w>
build in▁gs</w>
ay ▁
ap ing</w>
anc er</w>
add it▁ional</w>
T able</w>
Ordin▁ an▁ce</w>
N ational</w>
G w▁
F ilm</w>
Ex t▁ension</w>
C▁h ina</w>
4 9</w>
4 4</w>
▁we b</w>
▁wa ited</w>
▁vess el</w>
▁vacc ination</w>
▁u tive</w>
▁threat ened</w>
▁the i▁r</w>
▁sur plus</w>
▁str ic
▁stat ues</w>
▁spl it</w>
▁sell er</w>
▁s ight</w>
▁rem ote</w>
▁rail road</w>
▁rad io</w>
▁prov ed</w>
▁par ent</w>
▁p estic
▁oblig ation</w>
▁m a▁n
▁log ic</w>
▁l aughter</w>
▁l acks</w>
▁g ym</w>
▁foun der</w>
▁ed ge</w>
▁dec ades</w>
▁congrat ulatory</w>
▁com fortably</w>
▁cl ar
▁caf es</w>
▁bid ding</w>
▁b acter
▁ar med</w>
▁analy sts</w>
▁am ended</w>
▁V enezuel
▁Un ification</w>
▁St ar</w>
▁Nam san</w>
▁M O
▁M M</w>
▁A rea</w>
▁? ?</w>
▁ ge</w>
vis iti▁ng</w>
un▁ de▁r</w>
tec h▁n
s▁ exual</w>
ser▁ ve</w>
sa▁ le</w>
s e▁s</w>
r▁ am</w>
ro▁u nd</w>
pro te▁
po▁l itan</w>
po▁ or</w>
o▁ use</w>
o▁ le</w>
own ers</w>
os h
or▁ ganiz
n ear</w>
n ati▁onal</w>
m an▁y</w>
j oy
i▁c es</w>
incre ased</w>
ic ked</w>
i w
i enc▁e</w>
he▁ at</w>
govern men▁ts</w>
govern i▁ng</w>
f▁ ood</w>
f estiv▁al</w>
er ted</w>
el se</w>
eff e▁ct</w>
ear▁ c▁h</w>
d▁ own</w>
dis clos
develo▁p m▁ent</w>
comp▁an ie▁s</w>
com for▁
ch ild▁ren</w>
c entr▁al</w>
au th▁
ao Talk</w>
an ked</w>
ak ▁
Su▁p port</w>
Su won</w>
N G</w>
M E</w>
Ar▁ ti▁cle</w>
▁was hing</w>
▁tr aces</w>
▁tex ture</w>
▁t onight</w>
▁t ied</w>
▁t esting</w>
▁syn ergy</w>
▁sim pl
▁se eds</w>
▁sched ules</w>
▁rep aired</w>
▁reb ound</w>
▁r ocks</w>
▁proper ties</w>
▁per mitted</w>
▁mar tial</w>
▁j unior</w>
▁inves tor</w>
▁heav ily</w>
▁fr ame</w>
▁en ding</w>
▁develop ers</w>
▁cover age</w>
▁coordin ation</w>
▁conf used</w>
▁compreh en
▁c eiling</w>
▁breat hing</w>
▁bl o
▁ban king</w>
▁US D</w>
▁O k
▁L atin</w>
▁D oo</w>
▁1 ,0
ye ol</w>
wh er▁e</w>
u▁ t
ur ▁ed</w>
ub ai</w>
t▁ on</w>
tu▁r al</w>
to▁ ld</w>
ti o▁n
st ay</w>
retur n▁ed</w>
respon▁ se</w>
r s</w>
prom ot▁ed</w>
produc tion</w>
po▁ in
pe▁ ri
particip ate</w>
p tions</w>
o▁ ver
over ty</w>
our▁ th</w>
osp el</w>
op ened</w>
oo dle</w>
on line</w>
og ur
nu▁ clear</w>
m▁ od
liv ing</w>
l ead</w>
k▁ n
i▁n to</w>
i▁ ct</w>
inves ▁t
in e▁d</w>
ig▁h ts</w>
i efs</w>
hel▁ p</w>
h ouses</w>
h igh▁
farm e▁rs</w>
f ash
ew o▁rk</w>
ep ts</w>
ef▁fo▁r ts</w>
e u▁n</w>
dire▁ ct</w>
d uring</w>
d ed
cre ati▁on</w>
cl ean
ca▁ st</w>
cap it▁al</w>
c ot
c ente▁r</w>
c aug▁ht</w>
b▁ eg
bu il▁
b rea▁
b an
ar ea▁s</w>
af t▁e▁r</w>
ad vis
a .▁m.</w>
Y▁ oo</w>
W a▁ve</w>
U zbe
Tour i▁sm</w>
S outh</w>
Res ear▁c▁h</w>
Nov ember</w>
L ED</w>
K o▁
F estiv▁al</w>
&apos; clock</w>
▁will ingness</w>
▁wh ▁o</w>
▁w oke</w>
▁up grad
▁simultan eously</w>
▁shor ter</w>
▁sear ched</w>
▁s incere</w>
▁reti red</w>
▁receip ts</w>
▁re pository</w>
▁pos ture</w>
▁out comes</w>
▁jum ped</w>
▁ill ustr
▁form ing</w>
▁f ant
▁esc al
▁em ission</w>
▁eas ing</w>
▁ear s</w>
▁doub t</w>
▁di ab
▁descend ants</w>
▁del ▁
▁def eat</w>
▁contro lled</w>
▁comp eting</w>
▁comm only</w>
▁cap able</w>
▁borrow ed</w>
▁bel ong</w>
▁b one</w>
▁attrib uted</w>
▁attemp ts</w>
▁ac knowled
▁Trad itional</w>
▁Som e
▁Seong buk</w>
▁S even</w>
▁S em
▁Orig inally</w>
▁Manag er</w>
▁I I</w>
▁Han a</w>
▁Geum cheon</w>
▁Ex pressway</w>
▁E ul
▁Christi ans</w>
▁4 6</w>
with out</w>
w ife</w>
ur▁ ch</w>
ung er</w>
ul led</w>
t▁ ural</w>
t▁ ive</w>
t▁ ic▁
t▁ ell</w>
tr end</w>
tal▁ ks</w>
t e▁n</w>
str ateg
stan tial</w>
so▁ ld</w>
si t▁y</w>
sh ot</w>
s eri
riv a▁te</w>
r ul
pr▁ es▁
prof it</w>
pre dic
play ers</w>
pl ant</w>
of▁f ice</w>
nor i</w>
n u▁m
n e▁c
m▁ p
mob i▁le</w>
m ine</w>
m ajor</w>
k▁ ey</w>
j ▁un</w>
i▁sh ed</w>
i▁ n▁
incre ase</w>
in iti
ig a</w>
i u▁m</w>
fe el
exce▁ ll
ess ary</w>
en s▁
en j▁oy</w>
ea ge</w>
d▁ ev
d▁ ays</w>
d iv▁
con▁ti▁n ue</w>
cont▁ in
b ucks</w>
a▁t es</w>
a▁ bl
atte▁n t▁ion</w>
arr ang
ang ▁e</w>
al ▁e</w>
Y e▁
W e▁l
S er▁
Rus sia</w>
O n
M ark
J un▁g</w>
Intern et</w>
In stitute</w>
Hw a▁ng</w>
D a▁
7 8</w>
6 7</w>
201 1</w>
▁wor ries</w>
▁voc ational</w>
▁vis a</w>
▁stat ements</w>
▁refr iger
▁r u
▁pro sper
▁pred ecessor</w>
▁out look</w>
▁ob taining</w>
▁n o▁t</w>
▁min i</w>
▁mill ions</w>
▁less on</w>
▁leg end</w>
▁j ourney</w>
▁inter view
▁happen ing</w>
▁gu ilty</w>
▁gen res</w>
▁finis hing</w>
▁exc ep
▁disc over</w>
▁di esel</w>
▁cop ies</w>
▁bar riers</w>
▁b an</w>
▁attemp t</w>
▁ap par
▁after math</w>
▁affili ates</w>
▁accur ately</w>
▁absol ute</w>
▁W inter</w>
▁W ang
▁Se on</w>
▁Rep ubl
▁R em
▁Pa ul</w>
▁N ak
▁Mich uhol</w>
▁Manch ester</w>
▁In v
▁F ed</w>
▁Daew oo</w>
▁Chung nam</w>
▁Candid ate</w>
▁2 3
▁&a▁ pos▁
z er
wr ong</w>
wo▁r ried</w>
us ive</w>
uis ine</w>
ti ms</w>
tea▁ ms</w>
so▁ cial</w>
serv ▁ed</w>
sec▁ urity</w>
sc en
reg ard
re p▁or
r ac
pri▁ se</w>
perform anc▁es</w>
org▁ an
op y</w>
op ic</w>
of▁ f</w>
m▁ outh</w>
m▁ any</w>
m▁ .</w>
m ain▁
l eav
in t▁o</w>
illeg ▁al</w>
id em
follow ▁ed</w>
fem a▁le</w>
e▁n ▁
e▁ te</w>
e▁ k</w>
exc▁h ange</w>
ever y▁
es try</w>
enter tain
en c▁es</w>
empl oyees</w>
el ▁s</w>
el ig
eal thy</w>
d ol
d i▁c
d an</w>
comp▁an i▁es</w>
cit▁ iz
ch o
b▁e▁ come</w>
b▁ ased</w>
busin esses</w>
at▁ ten
ate▁ gy</w>
ar ly</w>
ar ch</w>
administr▁ ative</w>
ac les</w>
ab uk</w>
ab ies</w>
V ol
NE SCO</w>
A R
6 3</w>
5 6</w>
1 0▁
1 .
▁wis dom</w>
▁week ly</w>
▁wea pon</w>
▁w ash</w>
▁symp ath
▁sur ge</w>
▁special izing</w>
▁sou ven
▁sear ching</w>
▁s u</w>
▁renew al</w>
▁r ush</w>
▁pres ents</w>
▁po em</w>
▁lib eral</w>
▁l end</w>
▁in fr
▁gr atitude</w>
▁g inseng</w>
▁g as
▁fro zen</w>
▁for ever</w>
▁fer til
▁exclus ively</w>
▁exc ellence</w>
▁disappoin ted</w>
▁d e</w>
▁arr ange</w>
▁amb assador</w>
▁adop tion</w>
▁additi onally</w>
▁U l
▁Se veral</w>
▁P ak</w>
▁O k</w>
▁Malay sian</w>
▁L e
▁Kum ho</w>
▁Co ast</w>
▁B MW</w>
▁0 0</w>
▁&a▁pos; s</w>
y on▁g</w>
t▁ u
tr i▁al</w>
suppor t▁ed</w>
s el</w>
re po▁r
p▁os ▁
play ▁er</w>
plac ▁es</w>
ord e▁r</w>
mar ks</w>
m or▁
l▁ik▁ ely</w>
la▁ w</w>
j un</w>
is s▁ue</w>
irel ess</w>
inter est▁ed</w>
in augur
impo▁r tant</w>
ig ital</w>
hav i▁ng</w>
g▁row th</w>
f▁ r
f ath▁er</w>
e▁ duc
exp e▁ct▁ed</w>
end ▁s</w>
ea sing</w>
dr am▁
der ▁s</w>
c▁h arge</w>
contin ued</w>
con trol</w>
ci ation</w>
c on</w>
ber ry</w>
bea u▁
atten ded</w>
att ack</w>
ath on</w>
ari at</w>
ap o▁
ag en▁cy</w>
ag enci▁es</w>
ad j
a uc
a eng
Y o▁on</w>
Ur b▁an</w>
T O</w>
S▁ eo</w>
St ud
H e</w>
G A</w>
Co▁un cil</w>
B O</w>
Ass embly</w>
6 6</w>
6 4</w>
5 2</w>
▁wor ldwide</w>
▁v ary</w>
▁t ies</w>
▁st ele</w>
▁sc ent</w>
▁reserv ations</w>
▁pollut ants</w>
▁pl ed
▁petition er</w>
▁par c
▁manufactur er</w>
▁m a▁
▁lic en
▁k id</w>
▁inquir y</w>
▁inf ant</w>
▁hom ework</w>
▁feed back</w>
▁exc itement</w>
▁determ ining</w>
▁d ried</w>
▁char coal</w>
▁ch ampionship</w>
▁bur ning</w>
▁bur ial</w>
▁bott les</w>
▁anticip ated</w>
▁Yeong deungpo</w>
▁V en
▁U i
▁Super intendent</w>
▁L iv
▁F ans</w>
▁Con ver
▁B ook</w>
▁B an
▁Ar ch
▁& apos▁
win ni▁ng</w>
w ay▁s</w>
v▁ en
v il▁l
u▁n ity</w>
u▁n de▁r</w>
u rement</w>
t▁ alk</w>
t▁ al
tr ans▁
ti st</w>
s▁ing le</w>
st y
sion ate</w>
sh in</w>
s on▁gs</w>
read ▁y</w>
re t▁
r ain
pr▁ od
prepar ▁ed</w>
perfor▁m ance</w>
particip ati▁ng</w>
par tment</w>
p ti▁on</w>
ov▁ er▁
our se</w>
of▁f ic
offic ▁er</w>
off i▁c
o ffer
mon▁ ey</w>
lo▁ oki▁ng</w>
leg isl
lec tu▁re</w>
i▁r l</w>
i▁ f
iti g
it ages</w>
ir a</w>
indus▁ trial</w>
im pres
ho▁ od</w>
h om▁
giv▁ en</w>
g one</w>
g a▁r
f ees</w>
e▁nd e▁d</w>
expen sive</w>
ex ten
ex pl▁
es it
erg ency</w>
en▁ tial</w>
e ur</w>
d ong
d am</w>
c▁ aus
corpor a▁te</w>
civ il</w>
b▁ ro
at ell
as ions</w>
ak er</w>
T his</w>
P ublic</w>
N .</w>
Jo▁s eon</w>
Intern at▁ional</w>
En tr
D epart
D ec▁
Ch in▁a</w>
7 9</w>
7 1</w>
6 8</w>
1 1▁
▁wit ness</w>
▁war ehouse</w>
▁techn ological</w>
▁subsidi ary</w>
▁su its</w>
▁resc ued</w>
▁prin ted</w>
▁pen ding</w>
▁not able</w>
▁liter ary</w>
▁int angible</w>
▁inaugur ation</w>
▁hospital ized</w>
▁experim ent</w>
▁dis tur
▁cover ing</w>
▁compon ents</w>
▁comp uters</w>
▁categ ories</w>
▁c o▁uld</w>
▁bur st</w>
▁broadc aster</w>
▁bor ne</w>
▁be in▁g</w>
▁ab ilities</w>
▁Z h
▁Yang pyeong</w>
▁Uzbe k</w>
▁Sh rine</w>
▁S k
▁Represent atives</w>
▁R ea
▁M ike</w>
▁E stablis
▁Con ference</w>
▁An seong</w>
v or</w>
us▁ try</w>
un nel</w>
t▁ri al</w>
te ok
s▁ ome</w>
sum m▁er</w>
sever ▁al</w>
secret a▁ry</w>
s mo▁
p sych
ou t▁
or al</w>
offic ▁e</w>
m e▁nts</w>
l▁ ong</w>
l im</w>
k e▁t</w>
j un▁g</w>
i▁ ld</w>
iz a▁tion</w>
is▁ h</w>
insur an▁ce</w>
indus tr▁y</w>
in st▁
if▁ ic
h▁ an</w>
h us
fur th▁er</w>
f a▁l
f a
e▁ar ch</w>
e▁ ed</w>
estab li▁sh</w>
es ity</w>
en▁ tly</w>
d▁ am
di▁ ed</w>
d i▁n
cus t▁om
contin u▁ed</w>
constr u▁ction</w>
concer t</w>
compl eted</w>
comm erci
chang ▁ed</w>
c t▁
b▁ ers</w>
at tra▁c
ar▁ ly</w>
ar i▁ng</w>
ap h</w>
ad▁ v
S cien▁ce</w>
K▁or▁ ea</w>
H ae</w>
F ood</w>
F am
B aek
A▁r t</w>
8 7</w>
2 ,000</w>
1 6th</w>
&ap▁os▁; re</w>
▁wat ers</w>
▁wat ch
▁var ies</w>
▁ul tra</w>
▁sub committees</w>
▁su m</w>
▁st uff</w>
▁special ty</w>
▁sid ew
▁shou lders</w>
▁sever ely</w>
▁s ▁o</w>
▁reluc tant</w>
▁part ners</w>
▁p ink</w>
▁organiz ing</w>
▁op tions</w>
▁listen ed</w>
▁lif ted</w>
▁l inking</w>
▁l ea▁
▁inscri bed</w>
▁im pris
▁hor iz
▁high l
▁gradu ated</w>
▁f illing</w>
▁exc ess</w>
▁exam s</w>
▁enter tain
▁differ ently</w>
▁d oll</w>
▁clos ure</w>
▁cer tainly</w>
▁acc ess
▁Ye ouido</w>
▁Y eong</w>
▁S yn
▁M as
▁L o
▁Jeon buk</w>
▁E th
▁D ang
▁Cre ation</w>
▁Concer ns</w>
▁Ch i</w>
▁C alifornia</w>
▁B us</w>
▁Argent ina</w>
▁Ad v
▁8 00</w>
▁7 00</w>
▁200 2</w>
w ill
vi o▁l
v illage</w>
u▁ k</w>
u▁ g
ur er</w>
u a▁l</w>
tu ps</w>
tr▁ ies</w>
tr▁ ation</w>
tr u▁c
ter ▁n
s▁ ite</w>
s▁ ay</w>
sup ply</w>
sol▁ ve</w>
r▁ s</w>
pre▁ ss</w>
ph y▁
partic▁ip▁ ate</w>
particip▁ at▁ion</w>
o▁n line</w>
o v</w>
mbud sman</w>
iv ▁es</w>
iti▁ ve</w>
in frastruc
impl eme▁nt</w>
ib l▁e</w>
h ous▁
g ye</w>
e▁n ▁t</w>
e▁n cy</w>
ex▁ per
exper▁ ience</w>
en▁ ess</w>
ek wondo</w>
determ in▁ed</w>
cour se</w>
cont▁ in▁
cont e▁nt</w>
concer ni▁ng</w>
coll e▁ge</w>
ci ties</w>
ch▁ an</w>
ch e▁rs</w>
c row
c e▁d</w>
bo a▁rd</w>
b etter</w>
aw ar
ash es</w>
any thing</w>
Y ou</w>
Y ork</w>
Res ourc▁es</w>
Oct ob▁er</w>
O K</w>
L ove</w>
L if
F estival</w>
D i▁s
Ch airperson</w>
4 1</w>
& ap▁o▁s
▁wr ap</w>
▁under going</w>
▁uncertain ty</w>
▁tend ency</w>
▁stand ard
▁sn ow
▁sk ill</w>
▁sea sonal</w>
▁retur ns</w>
▁rel atives</w>
▁produc er</w>
▁plan ted</w>
▁pea ceful</w>
▁p ulled</w>
▁math ematics</w>
▁liv elihood</w>
▁l isting</w>
▁id e
▁g ▁
▁frequ ency</w>
▁discus sing</w>
▁dess ert</w>
▁decre ases</w>
▁comm and</w>
▁che ered</w>
▁cap tain</w>
▁business men</w>
▁aff ection</w>
▁Yang cheon</w>
▁W all</w>
▁M o
▁L u
▁K ook
▁J i
▁H wa</w>
▁G y
▁Dep ending</w>
▁Con tent</w>
▁Ch ild</w>
▁Belg ium</w>
▁Bas ic</w>
▁B us
▁Ap pl
▁@ ▁
▁@▁ -@</w>
z o▁ne</w>
ye▁ ol</w>
w e
w ar▁d</w>
v▁ i
vol u▁n
vi ation</w>
us ▁es</w>
un▁ ch</w>
to▁ ur</w>
throu▁ g▁h</w>
th ou▁gh</w>
ta▁ ge</w>
t es
sus pec
suppor ti▁ng</w>
sum ers</w>
spe▁ cial</w>
sh▁ ed</w>
sec retary</w>
rit ory</w>
ren own▁ed</w>
re vis
p▁l ace</w>
pr▁o d▁uc
promo ti▁ng</w>
produc t▁s</w>
our▁ ce</w>
o ther
n▁ or
neigh bor
mov eme▁nt</w>
m ember</w>
liv esto▁ck</w>
iv ▁er
iv id</w>
in e▁ss</w>
ic tion</w>
h uman</w>
h ic</w>
for eign</w>
fac tory</w>
f es▁tiv
ex p▁er
ew ay</w>
es h
ee▁ p</w>
ee ts</w>
distrib uti▁on</w>
diff i▁c
d .</w>
cu▁l ture</w>
comp▁ any</w>
comp eti▁
ch ase</w>
c ast</w>
b▁u y</w>
bi▁ g</w>
b i</w>
aud ▁it</w>
atio▁n al</w>
ar i▁es</w>
announ c▁
am end▁ed</w>
af te▁r</w>
Wor ld</w>
S▁ outh</w>
Sp▁ ec
Sept emb▁er</w>
Sec uri▁ty</w>
Pro▁v in▁ce</w>
P riva▁te</w>
In d▁
I P</w>
Govern men▁t</w>
D A</w>
Co oper
Cheon an</w>
B l▁
A s▁
9 1</w>
1▁ 5</w>
13 th</w>
, 2
▁vol ati
▁var iable</w>
▁uplo aded</w>
▁tre m
▁tr ains</w>
▁tou ched</w>
▁sub stitute</w>
▁stabil ize</w>
▁st uck</w>
▁spect ators</w>
▁solid arity</w>
▁sh ocked</w>
▁ret ail
▁repres ented</w>
▁r ighteous</w>
▁r ib
▁r amen</w>
▁qual ified</w>
▁p apers</w>
▁minis tries</w>
▁mer it</w>
▁lon ely</w>
▁less ons</w>
▁inten d</w>
▁inconven ient</w>
▁in land</w>
▁hous ew
▁gu y</w>
▁en gr
▁des truction</w>
▁dem anding</w>
▁cou pon</w>
▁cons ist</w>
▁commerci alization</w>
▁cal endar</w>
▁break s</w>
▁b ib
▁appro ached</w>
▁alloc ation</w>
▁St one</w>
▁O rdin
▁K BS</w>
▁Det ailed</w>
▁C O
▁Bo at</w>
▁An y
▁&▁ quot;</w>
y esterday</w>
v▁ ince</w>
v ul
under▁st a▁nd</w>
tr an▁s
th ink</w>
t aking</w>
s▁h ou▁ld</w>
sh o▁ws</w>
re port
p▁ol▁ icy</w>
p▁ .m.</w>
prov in▁cial</w>
pro perly</w>
pric ▁ed</w>
ow ▁ed</w>
on▁ ze</w>
on a▁l</w>
off ee</w>
oc▁ r
m▁ ar
mp ire</w>
m i▁ng</w>
m ate</w>
l▁ ast</w>
l oo▁k</w>
l etic</w>
i▁ ti▁es</w>
is si▁on</w>
is ive</w>
is an</w>
im age</w>
illi ant</w>
ili ary</w>
il ization</w>
i ently</w>
hol iday</w>
d▁ es▁
div ision</w>
cos ts</w>
comp▁ anies</w>
ci ti▁
b▁l em</w>
bu▁ d
bus▁in es▁s</w>
bur g</w>
bas is</w>
b in</w>
a▁b ou▁t</w>
a▁ ti▁
ati gue</w>
an▁ gu
air y</w>
ag▁ ain▁st</w>
a eng</w>
St ates</w>
M ex
C s</w>
A ustral
A R</w>
4 3</w>
2 9th</w>
,0 00
▁won dering</w>
▁tr ucks</w>
▁t ool</w>
▁t a▁
▁sub mitting</w>
▁sl owing</w>
▁se es</w>
▁s port</w>
▁s a▁id</w>
▁rever se</w>
▁requ iring</w>
▁rel ieve</w>
▁notic ed</w>
▁l aid</w>
▁k id
▁inter ven
▁inc idents</w>
▁flo ating</w>
▁fl ag
▁fast est</w>
▁f ed
▁discoun ts</w>
▁dis satis
▁den ied</w>
▁del eted</w>
▁d ynasty</w>
▁commemor ative</w>
▁comb ines</w>
▁ass ignment</w>
▁al on▁g</w>
▁al liance</w>
▁Tom orrow</w>
▁Se un
▁S and
▁Os aka</w>
▁Net flix</w>
▁M e</w>
▁K ingdom</w>
▁Gwang myeong</w>
▁G ur
▁G ong
▁G am
▁D aily</w>
▁Cong ress</w>
▁Con tro
▁Af ter
▁20 22</w>
w▁ ater</w>
work er▁s</w>
ut ely</w>
t▁her n</w>
t▁ ro
t▁ ri▁
t▁ ae</w>
tig ious</w>
te en
ta▁ e</w>
t an</w>
sc ene</w>
r▁ ec▁
rais ▁ed</w>
r igh▁ts</w>
r an▁ge</w>
pr▁oc▁ ess</w>
pro per▁ty</w>
privileg ed</w>
pres ident</w>
ph oto</w>
p a▁re</w>
organiz ation▁s</w>
olo▁g ical</w>
me▁ etin▁g</w>
m oon</w>
k ward</w>
j uris
i▁ ence</w>
iz z
ist ently</w>
is t▁s</w>
inves tment</w>
f ed
f an▁s</w>
d ivid
cour▁ se</w>
consec u
cer ning</w>
bl▁ em</w>
be▁ fore</w>
bet▁w een</w>
a▁ mo▁
ar res
an mar</w>
an a▁l
alk eeper</w>
ai▁ l</w>
af▁ ter</w>
ab ok</w>
W o▁men</w>
Pres ident</w>
P yong
P o▁p</w>
J ung
G roup</w>
G od</w>
Found ati▁on</w>
Con s
Cheong do</w>
Ch airper
8 3</w>
4 7</w>
3▁ 00</w>
. m▁.</w>
▁w e▁ll</w>
▁v ital
▁t ip</w>
▁station ed</w>
▁sp okesman</w>
▁sh oot</w>
▁sh a▁ll</w>
▁s and</w>
▁res ume</w>
▁rea ches</w>
▁professi onals</w>
▁pos ter</w>
▁par ad
▁mus cle</w>
▁minis ters</w>
▁m aybe</w>
▁l ev
▁id eal</w>
▁h its</w>
▁foun ding</w>
▁explos ion</w>
▁expl aining</w>
▁ev ol
▁er rors</w>
▁en ro
▁eg g</w>
▁d ens
▁cong estion</w>
▁con gl
▁broadc asters</w>
▁bro thers</w>
▁boy s</w>
▁al ert</w>
▁abol ished</w>
▁a f▁ter</w>
▁Seong dong</w>
▁S sang
▁N owadays</w>
▁Kak aoTalk</w>
▁Fac ilities</w>
▁F am
▁F C</w>
▁Dav id</w>
▁1, 500</w>
▁ ve</w>
x y</w>
w▁ a</w>
ver▁ sy</w>
ve h▁
ul s
t▁ est</w>
th or
sel ing</w>
s ep
res earch</w>
r ency</w>
preced ented</w>
pr o</w>
pos▁ ition</w>
politi c▁al</w>
pl ease</w>
particip ati▁on</w>
p etr
o▁ pen
ou▁ ght</w>
ou t▁h</w>
osc ow</w>
onom o▁us</w>
n e▁rs</w>
l ux
l ev
ker age</w>
i o
i er
i ant</w>
her self</w>
hans anseong</w>
govern ▁
gh ts</w>
fl u
er ious</w>
enti▁ re</w>
en ough</w>
empl oy▁
eme▁n tary</w>
ec tor</w>
dep▁ th</w>
dec or
dec ision</w>
c▁h a▁nge</w>
c▁ hed</w>
con feren▁ce</w>
comp▁ an▁ies</w>
comp et
ch▁ ange</w>
c enters</w>
bri ef
b or▁
b a</w>
a▁ ff
arti s▁ts</w>
apo▁ s▁
ac ed</w>
Prov▁ in▁ce</w>
M ov
Gwang ▁ju</w>
Coun ci▁l</w>
Ad minis
A I
9 3</w>
4 2</w>
0 .
▁y ea▁rs</w>
▁wel comed</w>
▁tri als</w>
▁sea food</w>
▁s u▁
▁rememb ered</w>
▁re im
▁por tal</w>
▁p ig</w>
▁p ays</w>
▁origin ated</w>
▁occ urrence</w>
▁o k</w>
▁mak ers</w>
▁liv er</w>
▁l abor
▁inv asion</w>
▁inf ection</w>
▁ind is
▁i Phone</w>
▁gl ad</w>
▁geograph ical</w>
▁f i▁rst</w>
▁dormit ory</w>
▁dec ade</w>
▁d ic
▁cr u
▁cour age</w>
▁cop y
▁conven tional</w>
▁com eback</w>
▁clin ic</w>
▁civ ilians</w>
▁c uts</w>
▁ben ch
▁ar ▁e</w>
▁appro aching</w>
▁apprais al</w>
▁Un ified</w>
▁St ock</w>
▁Qu een</w>
▁Or chestra</w>
▁O pen</w>
▁M t</w>
▁Inspec tion</w>
▁G all
▁Ex po</w>
▁C el
▁An n
v ation</w>
us ter</w>
us h▁ed</w>
un▁ g
t▁ ic▁le</w>
t▁ her</w>
tu m</w>
techn olog
stre▁ et</w>
st an▁d
res sive</w>
rec e▁nt</w>
qu is
qu es▁
prev e▁n
pres erv
par liam
p rivate</w>
p et</w>
o▁n g▁
ow ns</w>
ol▁ l
oc▁ k</w>
minis t▁er</w>
m etro
l a▁ck</w>
il▁ ar</w>
il ateral</w>
ien n
h ou▁rs</w>
ge olli</w>
g e▁
fl ow</w>
e▁n e</w>
e▁ pt</w>
exi▁st ing</w>
ess i▁on</w>
en▁ ted</w>
en ti▁ng</w>
educ at▁ional</w>
ec tion
ea▁ sy</w>
ea ch
e ol</w>
d▁ ep
dis trict</w>
dire▁c t▁or</w>
d u</w>
c▁ an▁
cre a▁t▁e</w>
c ateg
bu▁ r
bi▁ lli▁on</w>
a▁l es</w>
ac▁ k
Y u</w>
U V</w>
S C</w>
J ong
F▁ or
D yn
A hn</w>
5 9</w>
201 0</w>
▁vir tu
▁th o▁se</w>
▁str ang
▁sincer ity</w>
▁ship building</w>
▁sc andal</w>
▁sal ad</w>
▁s ophistic
▁respon sibilities</w>
▁r a</w>
▁p overty</w>
▁inten ding</w>
▁instr ument</w>
▁inconven iences</w>
▁in noc
▁i m▁
▁her self</w>
▁heal th
▁har ves
▁for th</w>
▁fac ial</w>
▁f ought</w>
▁exp ired</w>
▁estim ates</w>
▁ess ay</w>
▁draw s</w>
▁dr ank</w>
▁dis mant
▁deterior ation</w>
▁depl oyed</w>
▁cover s</w>
▁contrac tor</w>
▁cont ext</w>
▁concentr ate</w>
▁b u▁
▁b esides</w>
▁activ ists</w>
▁Ye osu</w>
▁Ta eg
▁Star bucks</w>
▁S ix</w>
▁Real ly</w>
▁R oyal</w>
▁R am
▁Offic ial</w>
▁Memor ial</w>
▁M icro
▁M ake</w>
▁Law maker</w>
▁H igh
▁F uture</w>
▁B lo
▁B an</w>
▁7 5</w>
▁200 3</w>
w ould</w>
us e▁d</w>
t▁r avel</w>
t▁ ries</w>
tur ▁ed</w>
thi▁n king</w>
su ffici
sp ir
sho▁ w</w>
sh ed</w>
s pre
s ongs</w>
r▁ o</w>
ru it</w>
represent▁ ative</w>
rel at▁
rec ep
re vi▁ew</w>
re pl
pu▁ sh</w>
pro▁ c
pres i▁d
pon se</w>
person n▁el</w>
odhis att
ob ▁s</w>
n▁ umber</w>
nam ▁ed</w>
mir ae</w>
menti on▁ed</w>
lim its</w>
l ation</w>
jud ice</w>
it a</w>
indu▁s try</w>
incre asing</w>
im p▁ro
il ation</w>
ic▁ ies</w>
iber ate</w>
i ated</w>
h i▁ng</w>
h a▁nd</w>
h ar▁d</w>
f▁ir s▁t</w>
ev ents</w>
el l▁
de f▁
dam age</w>
cus▁ tom
coun cil</w>
ch ief</w>
c a▁n
b ri▁
b est
ay i▁ng</w>
app ly</w>
ad d▁
activ ely</w>
ab s</w>
Y▁ ou</w>
S ih
Offic ▁e</w>
O ne</w>
N▁ ational</w>
J oon</w>
Dec emb▁er</w>
D o▁ng</w>
Aug u▁st</w>
8 1</w>
1▁ 1</w>
1 7th</w>
&▁ap▁os ▁
▁viol ates</w>
▁un ited</w>
▁tw enty</w>
▁treas urer</w>
▁th e▁r▁e</w>
▁termin ated</w>
▁st up
▁spec ifically</w>
▁sev enth</w>
▁repl ied</w>
▁r anks</w>
▁pr▁ ice</w>
▁pep per</w>
▁pat rol</w>
▁p etro
▁on going</w>
▁me ant</w>
▁manag es</w>
▁lif estyle</w>
▁k n▁
▁i ll</w>
▁gl asses</w>
▁g od</w>
▁f ly</w>
▁f ired</w>
▁distingu ished</w>
▁dispos able</w>
▁def ectors</w>
▁d i▁
▁competi tors</w>
▁b ub
▁any time</w>
▁a spect</w>
▁S an</w>
▁P ay</w>
▁N A
▁M ag
▁L ED</w>
▁Kw ak</w>
▁Kook min</w>
▁I lsan</w>
▁Gyeong gido</w>
▁Gye yang</w>
▁Br itain</w>
wa▁ it</w>
vi ol▁
vi e▁w</w>
ver se</w>
und ae</w>
un eration</w>
u t▁e</w>
to▁ wn</w>
t es▁t</w>
t aste</w>
s▁ um
soci e▁ty</w>
sec ti▁on</w>
sched ul▁ed</w>
s yn
re▁ as
requ ▁
r ur▁al</w>
p▁er▁ son</w>
produ▁ ction</w>
on ies</w>
ob b
n uc
n eeded</w>
m▁ ove</w>
mos ▁t</w>
mor ni▁ng</w>
mem▁ b
mark e▁t</w>
l ig▁ht</w>
k▁ ers</w>
it o</w>
ig ation</w>
i al▁ly</w>
hy ang
hom ▁e</w>
ha▁ ven</w>
ha▁ n</w>
h is▁
f▁ fer
fu▁r ther</w>
e▁ o</w>
es an</w>
equ i▁p
en viron▁
ea tly</w>
e els</w>
duc ted</w>
dis p
dis ease</w>
d oll
c▁h ange</w>
consult ati▁on</w>
conc e▁rt</w>
cl ass
ch▁ eon</w>
c entury</w>
c enter
c alled</w>
bec ome</w>
b ook
author ized</w>
as▁ on</w>
announc eme▁nt</w>
ann o▁un
ai▁ gn</w>
W ar</w>
R ules</w>
R iv
N A</w>
L and</w>
6 2</w>
4 ▁th</w>
▁won dered</w>
▁week days</w>
▁weak ened</w>
▁sub tit
▁rev eals</w>
▁perf ectly</w>
▁on to</w>
▁mo▁n ey</w>
▁men tion</w>
▁main stream</w>
▁liqu id</w>
▁lif t</w>
▁l overs</w>
▁k i</w>
▁h iking</w>
▁fun ny</w>
▁fr amework</w>
▁f itness</w>
▁expl o
▁end less</w>
▁divul ge</w>
▁def ined</w>
▁d ark
▁cool ing</w>
▁contrib uting</w>
▁cho osing</w>
▁budg ets</w>
▁b eds</w>
▁appl ause</w>
▁app earing</w>
▁ad m
▁U N</w>
▁St anding</w>
▁P acific</w>
▁K aesong</w>
▁Gu id
▁Gim hae</w>
▁Dec laration</w>
▁D igital</w>
yo▁ nd</w>
y gen</w>
t▁ ors</w>
tr▁ ip</w>
tis m</w>
th▁ a▁n</w>
ter ior</w>
s▁ ee▁
s▁ al
r▁ is
rais i▁ng</w>
qu ickly</w>
pre pa▁re</w>
pop ularity</w>
o▁r ed</w>
ov iet</w>
nec e▁ss
m▁ar▁ ket</w>
mom ent</w>
mod e▁rn</w>
jo▁ b</w>
i▁ e</w>
it ching</w>
is hes</w>
in eering</w>
im ag
ici ency</w>
ic on</w>
fav▁ orite</w>
fac ility</w>
f ly</w>
f est▁iv
expen ses</w>
end ant</w>
en si
em et
elec om</w>
eal and</w>
e ums</w>
e a▁ns</w>
du ti▁es</w>
difficul ti▁es</w>
diffic ult</w>
def en▁se</w>
c▁r▁ea te</w>
cri tici
co▁ pe</w>
c anc▁
b▁ ur
bus i▁n
be▁c▁ aus▁e</w>
a▁c tive</w>
atten ding</w>
ar riv
app▁ y</w>
an▁ ding</w>
an ci
a ver
W▁ or
D S</w>
Associ atio▁n</w>
8 2</w>
2 8th</w>
&apo▁s ;t</w>
▁un stable</w>
▁sup pres
▁sugg esting</w>
▁signific ance</w>
▁se iz
▁rob e</w>
▁remark able</w>
▁ref use</w>
▁rec all</w>
▁re development</w>
▁practic ing</w>
▁phr ase</w>
▁par ▁
▁not es</w>
▁near est</w>
▁m ay
▁l obby</w>
▁j ar</w>
▁indic ated</w>
▁i s▁
▁hard ly</w>
▁gr ace</w>
▁form ulating</w>
▁form ulated</w>
▁fil ing</w>
▁fab ric</w>
▁emphas izes</w>
▁deal t</w>
▁coun tless</w>
▁c yber</w>
▁bre eding</w>
▁ass essed</w>
▁advant ageous</w>
▁abol ition</w>
▁R ef
▁P ost</w>
▁Med ia</w>
▁Han bok</w>
▁F TC</w>
▁Dok do</w>
▁D ubai</w>
▁Canad ian</w>
▁Ac tually</w>
▁5 6</w>
▁200 1</w>
y an▁g</w>
vehic l▁es</w>
v oc
us er</w>
ur in▁g</w>
uni q▁ue</w>
tre atment</w>
th▁ eir</w>
th i▁nk</w>
stud y</w>
st ar▁
spe▁ ci
se▁ veral</w>
sa▁ ying</w>
s we▁
s in▁g</w>
s ci
ro un▁d</w>
regis tr
rec▁ eiv
re l</w>
pr▁o duc
pro of</w>
pa▁ ss</w>
or i
opport un
ol▁ og
ogur yeo</w>
n ee▁ds</w>
mis sions</w>
m outh</w>
m ist
m iddle</w>
m etic</w>
l▁ and</w>
l l▁
issu▁ es</w>
institu tions</w>
in ct</w>
i est</w>
h ope</w>
go▁ ld</w>
g roups</w>
fe▁ ll</w>
f our▁th</w>
f a▁r</w>
ey▁ es</w>
ex clus
ess e▁s</w>
er▁ ing</w>
er ts</w>
educ a▁tion</w>
ec▁ te▁d</w>
ea c▁h</w>
e u▁p</w>
d▁ it</w>
d able</w>
c▁ ut</w>
cour t</w>
con ve▁n
com▁p any</w>
ch u▁l</w>
b ul
b al▁l</w>
a▁r ing</w>
at▁ eg
at mos
am mar</w>
am ation</w>
ak san</w>
ain e▁d</w>
ag on
ac ro▁ss</w>
U. S▁.</w>
Prov i▁ncial</w>
P r▁es
Jap anese</w>
Isl and</w>
H ou▁se</w>
H a▁n
Fin anci▁al</w>
Comm uni▁ty</w>
Ch a▁ir
B yung</w>
B udd▁
&a▁pos; ve</w>
& gt;</w>
& am▁p;</w>
▁y uan</w>
▁wh i▁le</w>
▁vit ality</w>
▁t▁ he</w>
▁travel ers</w>
▁t e▁
▁t ac
▁sl owed</w>
▁sci enti
▁s ought</w>
▁r id</w>
▁r id
▁quar antine</w>
▁provis ional</w>
▁produc es</w>
▁preven ted</w>
▁over due</w>
▁o mitted</w>
▁o ldest</w>
▁necess ity</w>
▁mon ks</w>
▁mir ror</w>
▁mea suring</w>
▁lo g</w>
▁is ol
▁indic ate</w>
▁h a▁s</w>
▁gener ate</w>
▁foc uses</w>
▁fl owing</w>
▁exhaus ted</w>
▁ex posure</w>
▁el ectr
▁dis sol
▁dis ciples</w>
▁diab etes</w>
▁def ects</w>
▁cou pons</w>
▁conver gence</w>
▁cons tr
▁comp iled</w>
▁comm ander</w>
▁comb ining</w>
▁clean er</w>
▁circ ulation</w>
▁che ese</w>
▁ch amber</w>
▁appro ximately</w>
▁app s</w>
▁ap ology</w>
▁Un mun
▁Sh aring</w>
▁G ender</w>
▁E ui</w>
▁Cons ult
▁B ehind</w>
▁A r▁
▁ tio▁n</w>
week end</w>
ver ning</w>
ul ati▁on</w>
t▁ aking</w>
th rough
s▁ay in▁g</w>
s▁ elf</w>
s▁ ai▁d</w>
sti ll</w>
son ▁s</w>
si▁ d
si ze</w>
sh ops</w>
se▁r v▁
row ing</w>
qu ar▁
prov ement</w>
produ▁ ce</w>
probl e▁ms</w>
preven ti▁on</w>
pre fer
pl a▁y</w>
perfor▁m an▁ce</w>
particip an▁ts</w>
op▁ eration</w>
on t
on o▁my</w>
oles c
ol en</w>
of ten</w>
mov ement</w>
mod el</w>
med i▁
mean ing
lo▁ t</w>
li▁ st</w>
l ity</w>
l at▁er</w>
inter est</w>
id entally</w>
hy up</w>
hwam un</w>
h appen
fo▁ ll
fac ▁t</w>
expl ained</w>
exce▁ll ent</w>
estiv a▁l</w>
eg ulation</w>
di plom
c▁om ing</w>
c▁l ass</w>
cul t▁ural</w>
cre d
cou▁ ldn</w>
coun▁ ty</w>
consult ati▁ve</w>
chairper so▁n</w>
cel ain</w>
br a▁nd</w>
bl ock
be▁ca▁ us▁e</w>
beg an</w>
a▁mo▁ unt</w>
a▁ l▁
aw a▁y</w>
ar▁ k</w>
all ow</w>
a xed</w>
Y eon</w>
Vill a▁ge</w>
T EX</w>
J u</w>
Gyeong ▁
F oundation</w>
Dec ember</w>
Ch ung</w>
1 00
&qu ▁o▁t;</w>
▁un authorized</w>
▁th ick
▁th e▁y</w>
▁sti r</w>
▁sh aking</w>
▁se qu
▁roof top</w>
▁respon ding</w>
▁rel iable</w>
▁rel ax</w>
▁recip ients</w>
▁r o</w>
▁pregn ancy</w>
▁plat forms</w>
▁p ets</w>
▁lectur er</w>
▁l ucky</w>
▁h ill</w>
▁eth nic</w>
▁em erge</w>
▁disc overy</w>
▁differenti ated</w>
▁dec ides</w>
▁d ad</w>
▁con gres
▁comprehen sively</w>
▁a d▁
▁W or▁ld</w>
▁Vis itors</w>
▁V R</w>
▁Pro gram</w>
▁Ph ot
▁Nex on</w>
▁Han am</w>
▁Dong nae</w>
▁Contro versy</w>
▁C SAT</w>
▁B ol
▁2 .5</w>
▁ ce</w>
wr itten</w>
w oo▁k</w>
u j
t▁ her▁e</w>
t▁ al</w>
th▁ od</w>
termea sure</w>
s▁y s▁tem</w>
s▁h ow</w>
s▁ uk</w>
sof t</w>
scre en</w>
rev ealed</w>
res▁ s</w>
rea▁ se</w>
publ ic
pr ac▁
pla▁n n▁ing</w>
pl a▁ys</w>
pa▁ ss
o ing</w>
n ut</w>
n ot
m▁ on▁
m▁ is
mov▁ ie</w>
mi▁ ss
mi▁ lli▁on</w>
ma▁ d▁e</w>
m anned</w>
l▁ oc
lea▁r n</w>
iz▁ at▁ion</w>
it u▁re</w>
ir ang</w>
inst all▁ed</w>
in fl▁u
in e▁s</w>
ici aries</w>
ic ious</w>
i ro
g i▁rl</w>
fri endly</w>
euk gi</w>
er▁ n</w>
er cial</w>
ep o</w>
en▁ ue</w>
ear by</w>
car e▁er</w>
c ars</w>
bi▁ gg
b illion</w>
a▁p p
a▁n c▁e</w>
ann ers</w>
an t▁
amp ions</w>
agric ul▁tural</w>
a el</w>
Tr ump</w>
S u</w>
S tr
S in
P▁ro vince</w>
Pyeong ta▁ek</w>
Pr▁o vince</w>
M a▁
M C</w>
I C</w>
H o</w>
H i▁gh</w>
G ov▁ern▁or</w>
F o▁rm</w>
F ebru
E a▁st</w>
Dis trict</w>
C▁ ent▁er</w>
Ch e▁
C ▁up</w>
Am e▁r
A ▁u
A M</w>
6 1</w>
5▁ 0</w>
1 2▁
&a▁pos▁ ;▁t</w>
&apo▁s ;m</w>
▁util ized</w>
▁uncer tain</w>
▁termin ate</w>
▁ten ants</w>
▁ten ant</w>
▁ta ekwondo</w>
▁sty les</w>
▁sn ack</w>
▁sec ret
▁sc or
▁ro ad
▁res ur
▁reac tions</w>
▁promul gation</w>
▁positi vely</w>
▁pas tors</w>
▁or d▁er</w>
▁ob vious</w>
▁moun tain
▁m ol
▁inv itation</w>
▁inten tionally</w>
▁hol es</w>
▁ha bit</w>
▁g ent
▁form at</w>
▁expres sing</w>
▁establis hes</w>
▁esc aped</w>
▁dro ve</w>
▁dis tor
▁depic ts</w>
▁d ates</w>
▁char ter</w>
▁ch ef</w>
▁c uisine</w>
▁br ings</w>
▁anx ious</w>
▁al arm</w>
▁af te▁r</w>
▁adop t</w>
▁T V
▁P os
▁M aster</w>
▁M ark
▁J echeon</w>
▁Egyp tian</w>
▁Concer t</w>
▁5 4</w>
z ▁e</w>
yst e▁m</w>
y oun
w ook</w>
v e▁d</w>
u▁ gg
us▁ ing</w>
ud es</w>
to▁ ward</w>
th ings</w>
t as
s▁ ea
sk in</w>
sh o▁rt</w>
sh o▁p
sch ools</w>
s qu
s om▁
s ale</w>
ro▁w th</w>
re▁g ular</w>
requ e▁st</w>
reg a▁r
rec or
re ality</w>
p▁ ur
p▁ ing</w>
pri▁ vate</w>
plac ▁e</w>
pa▁y ment</w>
ok es</w>
o k▁ing</w>
l▁ik ▁e</w>
lo▁ ok
k ok</w>
i▁ pa▁
i▁ ew</w>
in cl
implem ent▁
im por▁t
im a</w>
il▁ ities</w>
ig▁n s</w>
ighten ing</w>
if ted</w>
hos ▁p
hig h▁er</w>
herei▁n a▁ft▁er</w>
h a▁r
go gi</w>
g rou▁p</w>
fo▁r mer</w>
fer▁ red</w>
e▁n tly</w>
en thusi
eff ective</w>
d▁ ro
du ties</w>
del iberati▁on</w>
de ok
c▁ ri
ci d</w>
bl es</w>
b en▁
a▁ n▁
aud ience</w>
at tra▁ct</w>
as ▁e</w>
ar a
app ea▁r
apart me▁nt</w>
ang el
Se ok</w>
S ang
J ob</w>
H y▁
Dis ast▁er</w>
7 ▁th</w>
4 6</w>
2 5th</w>
2 2nd</w>
0 8</w>
0 1</w>
&a▁pos▁ ;
▁vis ▁it</w>
▁ver ified</w>
▁up set</w>
▁tr ag
▁ther eto</w>
▁t e▁r
▁surpris ing</w>
▁sur passed</w>
▁sugg estions</w>
▁sp oke</w>
▁sp eeding</w>
▁sl ight</w>
▁sh ed</w>
▁sex ually</w>
▁rum or</w>
▁reconstruc ted</w>
▁pro spects</w>
▁pres tigious</w>
▁po et</w>
▁mor t
▁mon opol
▁memor able</w>
▁me a▁ns</w>
▁lea ked</w>
▁law yers</w>
▁l o▁
▁l asted</w>
▁journal ist</w>
▁integr ity</w>
▁inst ant</w>
▁imm er
▁h esit
▁govern ance</w>
▁fair ly</w>
▁f atigue</w>
▁exp ires</w>
▁enti ties</w>
▁em otion</w>
▁el ement</w>
▁e up</w>
▁dram atic</w>
▁dis ability</w>
▁cultiv ate</w>
▁contain ers</w>
▁celebr ity</w>
▁c ried</w>
▁ar ises</w>
▁ap art</w>
▁alloc ated</w>
▁aggres sive</w>
▁T ime</w>
▁T ex
[...]
